/**
  ******************************************************************************
  * @file    cameratrap_data_params.c
  * @author  AST Embedded Analytics Research Platform
  * @date    2025-12-11T20:34:46-0500
  * @brief   AI Tool Automatic Code Generator for Embedded NN computing
  ******************************************************************************
  * Copyright (c) 2025 STMicroelectronics.
  * All rights reserved.
  *
  * This software is licensed under terms that can be found in the LICENSE file
  * in the root directory of this software component.
  * If no LICENSE file comes with this software, it is provided AS-IS.
  ******************************************************************************
  */

#include "cameratrap_data_params.h"


/**  Activations Section  ****************************************************/
ai_handle g_cameratrap_activations_table[1 + 2] = {
  AI_HANDLE_PTR(AI_MAGIC_MARKER),
  AI_HANDLE_PTR(NULL),
  AI_HANDLE_PTR(AI_MAGIC_MARKER),
};




/**  Weights Section  ********************************************************/
AI_ALIGNED(32)
const ai_u64 s_cameratrap_weights_array_u64[78687] = {
  0xc5869d36fe610f8U, 0x4ac7d2c29065dc7fU, 0x993d07714dacc97fU, 0x120969e78181eb57U,
  0x81a0e891d8e01ebaU, 0xf2661a2cf9b9c9c5U, 0xd4047f4abce82a06U, 0xef5d0dfc87367f16U,
  0x3ae47fa9a4bd67fdU, 0xf16fffff7d1U, 0xfffffe21fffffdf5U, 0xfffff7f8ffffe7b2U,
  0xfffffeb8fffff90aU, 0x8142f7c9f7f94e2cU, 0xbc5bd1525dcf822U, 0xecbadd11e9dbe213U,
  0x96db05e2f2e918feU, 0xbdbedd0219190bd8U, 0xff5c9e6d3da251eU, 0x8a1215ff13e956d4U,
  0xda1bb731eac530beU, 0x2e0f25f0d5a904dbU, 0x2f133020db64362aU, 0x4e2cea2bda1cf909U,
  0x50bac31c0addf1c1U, 0x7fe1f01a1d3bf2faU, 0x54ddfe22ee651618U, 0x2cbed92728d1bae6U,
  0xf022e9fc02444a2aU, 0x6191ae710364afbU, 0xff0a29e841022833U, 0x1f070f2af42dde18U,
  0x153a2c280a471323U, 0x23fb241ce75a1f08U, 0x4b0005f50c2fe833U, 0xa293ef3ea4fd422U,
  0x16392f1ed7293527U, 0x32f13dfe1730ef27U, 0x37234df91b7f1916U, 0x1d1612f70f4720dfU,
  0x393c14ebe7f219d2U, 0x7fbab7dbfc02e024U, 0xddee3340c99e3daU, 0xdc3ce84ff54f0936U,
  0xf8034e33e3e90ff5U, 0xb84acc0dec8aee05U, 0x7be2f300a01070eU, 0xffc90a2cd0f9c9bbU,
  0xe2bbe5c921d2f057U, 0xbfbcf7cf2ea935ecU, 0x821042cf0fccdcdbU, 0x9fd8fcd7e8a3d442U,
  0xdd30fdc1c972edcU, 0xca24ebfe44a11bd8U, 0x8105fc2b1ee6ed38U, 0xb5c7f02941ec010eU,
  0xaae627e82dcebeefU, 0xa90157d3ebcac305U, 0x109ac5a5321acca7U, 0xd42a5532d34328a1U,
  0xe5d5de9e32d12d20U, 0xb022419a2d2340a3U, 0xdbdb500c0f8b2a9eU, 0xfab4d7f345e28e1fU,
  0x52a3cb1558496cfdU, 0x2841e02bc6bd436dU, 0xc5e4fff06681ac1aU, 0xffc3f9c9d855f0e7U,
  0x51160b25d9572245U, 0x26e2e1eeda29feeeU, 0x27150333fe78e802U, 0x2e25d8ded92fe902U,
  0x3abfd8f20d21c7ffU, 0x4b44f3f6cc51d6eaU, 0x24314909017f2535U, 0x54fcd10c35df240fU,
  0x4520101909dbda2aU, 0xc00d43ffd5f42030U, 0xd0f41a011f382cd2U, 0x16bdfb2bfde902cbU,
  0xecf4f6061020d536U, 0x493cea3637ea15U, 0x7fe80034f3eb1df0U, 0x10d92c2dfc3e2a1bU,
  0xfd03e009074047feU, 0xffffffa400001126U, 0x113fffffc62U, 0xfffff24600000192U,
  0xfffffd8200000262U, 0x6958640bb44ed395U, 0x65447f0c0ee1da10U, 0x3a1fffffdf2U,
  0x6b3f4734b9b87f40U, 0x4eb84c3e66bc9b21U, 0xee000000c93U, 0x1700000d32U,
  0x2a500000d56U, 0x41d00001539U, 0xc1ac13602de61331U, 0x3605547f1a26eafeU,
  0x4cf3e120d8edeedcU, 0xb18a2318cab8dff5U, 0x44d61207e6da292dU, 0xdf3a193b3a3aebfbU,
  0xbcc3ebfb01bc2734U, 0x512f425bf000ddbU, 0x1938de710a38bf08U, 0xea1737020db06334U,
  0xdc8ffb8bef40b0aU, 0x41e0e6ff2fddb5acU, 0x41dbd402f8c8d681U, 0x2743f1cd0af1392dU,
  0xd21b034b2faf1a20U, 0xb714b7e957310c13U, 0xd7283e46ba32c320U, 0x807d405dba5b0b4U,
  0xf7fb0ce6e09d1537U, 0xc30a26dfe109032bU, 0x2df7cc1c12e342U, 0xe2bdea36fba9c34eU,
  0xf3d0d8d1b6e2f61aU, 0xe3c213c1fcca324bU, 0x2089cbc3e7d51fefU, 0xf3e6d1141cc9fadfU,
  0xea8106b6eee1d430U, 0x1f110c3002fc9a9U, 0x4947e0fc142d16e0U, 0xcd56fccae2d536e0U,
  0x41ee32ed112717efU, 0xed334700d2201c01U, 0x395b079fcada79cbU, 0xe1d1c3be3729d99dU,
  0xf71bedd7210febe5U, 0xd245f4f2011d7fe6U, 0x32d2e4e7271b34a8U, 0xfdf720b9040038b7U,
  0x3b30bcdd0f1e039aU, 0x322e26f30a18f310U, 0x1fe3facdb6db05e2U, 0x1e5bf7b0f9fbf9d2U,
  0x1121f6d123371abcU, 0xad62681d1e42f0eU, 0x24ceed3f205f2fdU, 0xa744c1b0c0aa58daU,
  0xe546ddfaf327a3baU, 0xabb41cc7ef1d9724U, 0xfbbfb9f2e745a24cU, 0xfe979bd1cd388c0dU,
  0x4d4e439e93cdf74bU, 0xabc01c04e2e6d100U, 0x3136daafe940fd2fU, 0xd702e5dee8cefa81U,
  0xc30c41316bb14729U, 0x19e416e0ebb7ed16U, 0x16e10b19bdad12c1U, 0xc1f09d500f121beU,
  0x215e43e0d9204600U, 0xed74f21c18f428f2U, 0xd624e57f2bfbf5e0U, 0xfef1d4180754e80aU,
  0xbcf0fe5a38ee570eU, 0xb744fff518810f3aU, 0x2fef41b71fa31e1fU, 0xc50235dd00aa522fU,
  0xec212ab8ad14d1c1U, 0xefe7ff14e944b6faU, 0xbcccb6c4f831ceffU, 0xe994d0e7f1cdaf30U,
  0x32e1f3ceeab1db55U, 0x45991aa4a4c9e628U, 0xfffffa46fffffec0U, 0x2c700000947U,
  0xfffffa8dfffffbf0U, 0x5a90000004eU, 0xeed8e2260cbfbeU, 0xe90045ecec2e3d43U,
  0x11e3103809d0fb67U, 0xebeb1a23245919a3U, 0x5b2247ebc44e9d67U, 0x5d05e905a60a5636U,
  0xd11cb5207fd0f04fU, 0xe25c32bb2826755fU, 0xde7e29c9d40b060fU, 0xe7e519ffdb4cf312U,
  0x1beb1deb0aded52bU, 0x1526092b2b2ed848U, 0x50cc3ab0100c0724U, 0xd015f60d391e2255U,
  0xb53ef9f544a42035U, 0x338fad1a87ffd19U, 0xd33a1dd6e1f9be71U, 0xa805ea5fffabcf33U,
  0x2b27dee11230029bU, 0x16f51deef509d2e4U, 0x1cebe8e41c17fbbaU, 0x1c20619c33ce8aaU,
  0x19ffe225fa51f59fU, 0x5d0df2404440181U, 0xb19ffe5252e02a7U, 0x32e211fce1fae7e5U,
  0xf70232253539e7b2U, 0xdc01e8124ee63e7fU, 0x191fd349fb17c321U, 0xfc4dc6dcbfd93064U,
  0xd50531ea3c283755U, 0x532effb0ab74227U, 0xd10bbbcdc7e2fd23U, 0xd8feda104fcebb3dU,
  0x31f3bd03d2ded161U, 0xeb5223e3bd011a73U, 0x40ca4be9c83ffaa2U, 0x63d4310aeb33af9fU,
  0x13df50b8f3394c9bU, 0x3f5be5be3a071181U, 0x6513d14a53df3e82U, 0xbf3c2b0eef2dbce6U,
  0x68e30d41ac5bf9e3U, 0x2f2c24a484b1805U, 0xebe1e3c819ec0d01U, 0xcacb2300d407d749U,
  0xd4403b41dcfa1f24U, 0x171e2813f514eeecU, 0x391d0610c93b0715U, 0x16e0dffce4f62774U,
  0xfa33f62645a504dfU, 0x15de17d4c12cd67fU, 0xe117edcf4412f664U, 0xf6bb1b5009bb310fU,
  0x5a9ca2bd6ea01c7U, 0xf296090022bed400U, 0xd1982834dc8fe5f4U, 0x31dfd9dd29e238d0U,
  0x13c0181333ea00d0U, 0x13101d363f01b127U, 0xc9fc281edb87c8efU, 0xc7ca0af104813d01U,
  0xdeda032ff090fff5U, 0xd1ea28de0302022bU, 0x36f93ec30ef32d23U, 0xed513437dace275bU,
  0xb85736ddddc7350bU, 0xfd09ddcf290d0e61U, 0xc830c3db2bd94174U, 0x23f6d9cdbc071d70U,
  0xec42041a20f85bU, 0x211d03f32641e87fU, 0xfffffdf0fffffef2U, 0xa6a000006dbU,
  0x11b000007b6U, 0x2b1fffff5aeU, 0xdd13689fec3a9402U, 0xa99e60ea13b0a81U,
  0xfffff4a7ffffe332U, 0x90e10f9f2e1e4fdU, 0xefeef11cece50210U, 0x27bda9c0237df240U,
  0x400000000b52f740U, 0x2a2a7d0009a29b60U, 0x294c9b40046ad550U, 0xda09c0fbdb369111U,
  0xb12a812e232ff90fU, 0xb0c39348b62b15b4U, 0x3affb0c10019a457U, 0x4f7c7c2ac599463U,
  0x1aec9009c704df04U, 0x4217230f0c4b08d8U, 0x1513a044fb07b19eU, 0x18f3c75986e441dbU,
  0x27382432c3ece41bU, 0xcb1846ff812a08d6U, 0x2e71a32d01b1e29U, 0x2f10f90aad2f0204U,
  0xe9ccf7fec3d7d331U, 0x3f7d5309c35eec4U, 0xe9fcedcf9728fdd8U, 0xdd2ff01d85cdf316U,
  0x12fbe1ccd439140bU, 0xfd307ffa70fb0163U, 0x3a0436d4fcfbe133U, 0xb7084721c3ee0406U,
  0xfb83416fad41026U, 0x3de12504c22e4330U, 0xa2ee1e20edfcfe40U, 0x22e368a826b9515cU,
  0x50115cc6d61b742aU, 0xa9416f4eb1dd1bd0U, 0x59c2374a7de50b31U, 0x510704c751f131e9U,
  0x51e9791d6be31a4fU, 0x6ebcf7080acf0b7fU, 0x72af4ce206292c3eU, 0x2afc04ea462d1c66U,
  0x600575e175ac065eU, 0x75e869e74dd41627U, 0xe1df57df4dfb37e9U, 0xf243352ca9222136U,
  0xcff8f22108d5354fU, 0x9ce348077f293472U, 0xd82266f3e5f92818U, 0xea2e495147df4628U,
  0xc9db18f974153c1bU, 0xe12c090fc1e95f6fU, 0x12243e0057e72f29U, 0xae1521d06faa2557U,
  0x14d01330629efc73U, 0xf5bf450446a50364U, 0x380844c1e31a0850U, 0x7cf3de517fff177cU,
  0x5af0ffcb4ddc6166U, 0x6ed43220ecb52f49U, 0xfa24f5245ec8f55fU, 0x51e946dc6b160647U,
  0x30136cea17b64948U, 0xd7cbc2db812d38e7U, 0xf8afca2fd9e58e94U, 0xff3afbeda4c5f232U,
  0x34cb3458464ea406U, 0x369e39ead4bd1cb3U, 0xb8cdb4ae97b87386U, 0xee06fef9e988eaa0U,
  0xd2258bf80a93ee2fU, 0xb82b44d9aed7dc1fU, 0x2d0a40f84fc41932U, 0x6ef50bc5e7ef3f19U,
  0xe4305dbee0cef5cU, 0x7bef4ff83fd86a4dU, 0x2f2f3b0a241406faU, 0x45004c2e30e31426U,
  0x2c1f4bc60d1e656fU, 0xf30642bc20231c7fU, 0xdb355de30c2ddb41U, 0xc732275e2621fb2fU,
  0x1e992df05dfab54cU, 0x3db106bfba4ea91fU, 0x612d3d012dd53dfcU, 0x2e2d53e44608df3eU,
  0xceac1bf98144b341U, 0x323b350420c86213U, 0x4bf8dbd82ecf315aU, 0x1bdedf40c755cb03U,
  0x20461c4ab8560ae5U, 0x813919379eda261bU, 0x8725bed9841a0b02U, 0xc444d444d8510c1dU,
  0xeb4cce14905825d0U, 0xdb0519feac12c2ecU, 0xbcd112f9125012cdU, 0xd842ef16a61810f4U,
  0x8b5bc4e3aa5da9fbU, 0xabdf9627d7d7dc24U, 0xc2d8b1edec30e3c7U, 0x25d09ccd23012a37U,
  0xead1811f0501efdeU, 0xf8d1fc1ce73ab238U, 0xbefcd8171f31e360U, 0xc526cff01931e9f7U,
  0xdf1ad225043ddcf5U, 0x2c07cde810c52f23U, 0xc10400bbe829a349U, 0x220b1dad2c58126U,
  0xdd2c1009daf2114fU, 0x23c5425ca3d2e5daU, 0xd198b834dafd8534U, 0xf18214532613e054U,
  0xb404a1a9a0e10603U, 0xfeb4fcc69a4823faU, 0x2c6c64fe5a6d3ddU, 0x893bd2c5c55ad6e2U,
  0x9a2730aeb1dedae6U, 0x91ecd7a4b3551bfbU, 0x27dc01e691c7dd2cU, 0xa6d0d157a4eac8ddU,
  0xb7fbfb0c150aff43U, 0xc40c18d51bf1c5ceU, 0x53ffdcf9faf4ba6aU, 0x34cf19468681e0f3U,
  0xac0ae205c200b632U, 0x1127b7b4eb9fe2ccU, 0x80d000534dcc24dU, 0xdae7e7b64944a636U,
  0x403e17fda9e0b0cfU, 0xf50dbf482008d82dU, 0x3deb28f1e2aac222U, 0x553d17b137a84d44U,
  0x5eca7f28a218fb14U, 0xd9eefe14d8137362U, 0xaf271940953ad4e9U, 0x3eca4c6c9e06b1eeU,
  0xe486ee42ed40d0cdU, 0xacd637f0dc1b20fbU, 0x81b73ccfd540c129U, 0xf6a56ecbd257674dU,
  0x9c9157432b0c2c40U, 0xd0dd27fd2c501428U, 0xd13afa42cefef0ceU, 0xc04f99bd82f9d51U,
  0xe61191f0c94e9809U, 0x3549f90c2bc43616U, 0xd8d1569f44ec0605U, 0x9202c0c320e594a2U,
  0xfaf6da7f4ca4c15cU, 0x1c94c0a060bff84eU, 0x88d8c9ec09012293U, 0x44f000012daU,
  0x154d000008acU, 0x946fffff220U, 0xfffff262fffff2c2U, 0x17effffffd3dU,
  0xfffff07a00000f6eU, 0xffffe84cffffe7f6U, 0xfffff0f1000006d0U, 0x9ebda27511eb41e5U,
  0xec7fde00a3470f45U, 0xa54b671a44ee0d15U, 0x6451ef3c2daa95ccU, 0xfdc8042562333dbbU,
  0x95e3d801c406d9a6U, 0x807be7a1acc3148U, 0xdc102a1e135115feU, 0xd3592ce02f2d2437U,
  0x155c3933c2162260U, 0x20be99c2b21fd240U, 0xd3f217fdc5b5cd01U, 0x214e09f115db1ce8U,
  0xe943473a872fe825U, 0xddcac3fb48683028U, 0x2e53b0abc6c6b9d3U, 0xad4fe012db0410ebU,
  0x8d0d36401ef35405U, 0x2a4581090e582a1aU, 0x565e0dda1965a04bU, 0xaec4b0d7cf14bd4fU,
  0x2ebeb60b245ff02bU, 0x17ca47cd141a4f10U, 0xa1abb13b2a647cfU, 0xafaa3115d1249911U,
  0xfe2cd3fff61eb49dU, 0x83f4a68753514507U, 0xf873d1002746f429U, 0xb0d6e8b9c026e2bcU,
  0xc524ca2e74527b4U, 0x3944fa3a62fec010U, 0x7a1235fa3525b205U, 0x892dcb0bb9a8384bU,
  0xc2c737f5ff510228U, 0x24bcf48ae84c51cdU, 0xadba1a590dc31deU, 0xe7f7dfe2e00cec0dU,
  0x462c03ffe314f543U, 0xc7e3f962b8fd260fU, 0x27fcc5140af41a1aU, 0x4eeb154a40efecb5U,
  0x70e93341f620c0ffU, 0xb0fd5068ed54232U, 0xf734ed1ff4022b1cU, 0xc635db29eaf2fce8U,
  0x1c352b19dce50cfeU, 0x3d753660847e8c8U, 0x521de5e238d3b2f3U, 0xd7f881caacc12a41U,
  0xc0f708cc282d29e0U, 0x1728ec30ead32ad0U, 0x192efa02e227d7c8U, 0x27065319170fc6ecU,
  0x4913dee2f5260d49U, 0x3ad1c5f8c8103f08U, 0x3ecbec2e0aa1dbc5U, 0x43e7ddfd0d10f111U,
  0xd91dc9f5ebcf45ebU, 0xd4fc9c58be9dce09U, 0x13cc2a3b3cf5c71fU, 0x1932e612c8e4d5eeU,
  0xd800e9e8ca021d48U, 0x1fcfd12321fae30dU, 0x40bec3ffe08a3ad0U, 0xf7002376c28ffbd7U,
  0x38dbc2d83c27f60cU, 0x17e9d57505201526U, 0xe228f208ecebc465U, 0xdd34d413f1b35d5U,
  0xf13de2025812924U, 0xceea246f3fde2c4U, 0xe3d616104602223bU, 0xa2dfccc60ae0a7fcU,
  0xc802d91d3928a79dU, 0xefe2e4dd1139d305U, 0xfc1c350c37dacfe2U, 0x270308ffe4140807U,
  0xce58ec202e041befU, 0x81d6d4e2d894b61aU, 0xd140dee7ef3fc5c2U, 0xc2f41e820f9d011U,
  0xbe71a0608189a32U, 0xce107373741f60fU, 0xf13a15e910c31015U, 0xddfae3ca23de060dU,
  0xcc0d43fdc946acacU, 0x4fd742f75c2bc2b9U, 0xf30ceffe3107c242U, 0x3f2a05f20f551acaU,
  0x807b50dcd10f342U, 0xf810ac11dde29fb2U, 0x5e228df30f00afdU, 0x30eead3fc6b81720U,
  0xdffd3a25abeffd1fU, 0xd92a132bb2331ec9U, 0xf5cc3f348d4af5eeU, 0x52fab01dbf50c1fdU,
  0x56e1e038fbd4e8d1U, 0x40fcd1f6d3d629b9U, 0xf8d60630c9cf1e1fU, 0xeb320e14ecda082eU,
  0xdbddda1e35c212c7U, 0x12334c590159f2edU, 0xe1e8d9e025c0040aU, 0x52d892c3fc322017U,
  0x9a0b353830a71ffcU, 0xe9f4060b81313935U, 0xe60cd1b6f4bc40d0U, 0xd216dcf906db17c9U,
  0xc72e2f33f11a0b2dU, 0xcee316ceea080520U, 0xc827c516c1373ceaU, 0x3e20bcf5e441c926U,
  0xbd332e17f50cf527U, 0xddf6d6c4c521392dU, 0x14f3f5003ce53fdbU, 0x1925c92299e5dd21U,
  0xe71d17e7e40037daU, 0xebd5e029d6cbfdeaU, 0xaf8f836c4f61001U, 0xf81ab601b9fd19faU,
  0xe7ca2e073014e318U, 0x2ef6e7cfd6fa29deU, 0xd5c0f8c1ddd840c5U, 0x3ce81c7bce8e4e6U,
  0xdee804f7f60217f3U, 0x93eb48fec5f7e350U, 0xf3a4320f61106e1U, 0xc82e09e60af3f7c2U,
  0x1ce6e34ddeafdb0eU, 0x333f16aff340db37U, 0x23f7e849e2f33324U, 0x2544f2049c343aeU,
  0x20ee31c703e3af33U, 0xeadd621843c6b786U, 0x254223fd0f6ba34U, 0x34f8c033367fd717U,
  0xfdf5e0df03ff4fd2U, 0xc0cff860adbef1adU, 0x560bdbd798af2b65U, 0xc959275f791deffaU,
  0x442ef7d412a8a95eU, 0x15c6f709db3fe3c5U, 0x816dc04b168c28dcU, 0xdfdaf4013f3e2797U,
  0x3ab03cfbe2b19d2cU, 0xfa2a681bdb1cd4b1U, 0xd0f8c9db10eeb0e5U, 0x490fdd2ed05ae6e0U,
  0x381622fed438f1c8U, 0x5cb818e97b44bd3U, 0x1b2d39f420b034a3U, 0x4748ea1ce3f804a9U,
  0x348d7132d7fef7ccU, 0x67e051646f46eabaU, 0x402e432b0e3b0f39U, 0x1905aabfacc2d9a0U,
  0xba27ffdb0ea539c6U, 0x2fbb002e40f60ebfU, 0x6695061fd4a7d8fdU, 0x59c7616a37f7e585U,
  0x3c4ae1045b04f634U, 0xd151a5745e620c5U, 0x3ac6ddef04ccd4f1U, 0xc529490d231dc735U,
  0x4b04f8f4e0e2c125U, 0xe912eb87bf3cf21cU, 0xcc3ecf2e04433a18U, 0xbe2f147febfcf9d5U,
  0x13b3fce7fdfef01aU, 0xe2d3db1551df2c8U, 0x935d20900d5f905U, 0xc345aec9b7180aecU,
  0xe440ede8ee044b2eU, 0xbc2c4436f8e2ab23U, 0x48aec2f926f5e654U, 0xfb0903ed1b39c31aU,
  0xe9fe15cadacdb605U, 0x33199ceaf94310fcU, 0xd6fc2f082fce62c7U, 0xbebd2126210caf28U,
  0x6ee13432c63cb138U, 0xbd205bed75e1e74dU, 0x582bd1e14a3e8129U, 0x272eefbaffbefb33U,
  0xe32a291d15349f4eU, 0xc7f33c616a1fd3dcU, 0x3ccdc440a8cff152U, 0xcc020dca7ed7b135U,
  0x3309dc3fb9c0b7f5U, 0x24ff30974812fd4eU, 0xd3fc25f4205df3d0U, 0x1c150a4b372ed5cdU,
  0xea053b1af310fa78U, 0xcd673e75aaa19e6U, 0x13bab804dabba736U, 0xc2313bf1b17f60eU,
  0x935da41d3c8cdd5U, 0xedf81ca01f3f15dcU, 0xa4b5c21a411a47d3U, 0x6e06221e646ff06U,
  0xa6fafd44cfb6e0bcU, 0x59c7e13612c0933fU, 0xbd5103e1cf15a445U, 0xcb40ba821fff00fcU,
  0x4622bbb3163ca8f9U, 0x8507399df34727ecU, 0xc5551d27b7432f46U, 0x1b0b2201f6ca47b0U,
  0x9fab28d7de563535U, 0xbcdf04c2d7d833d9U, 0x12e2142d15023f2fU, 0xc21ed7ed37b3a8acU,
  0xee591eeb9559ceedU, 0x2d4290fc87d738f6U, 0xd1de1aec81165930U, 0xea3e975acfede120U,
  0xe6cdcc4112b6e41bU, 0xd80b01ffb0430b05U, 0xcf330e436c32942U, 0xe1fa94438db921feU,
  0x213ae921bb0dfadcU, 0x2316a3ff214dea09U, 0xff0412172fbb38c6U, 0x3312336fc11bc916U,
  0x1fca0c1506122fe7U, 0x3d94d7f46d9aeabU, 0x2e1ef0b5a915b020U, 0x35ddcb1fff2f3d27U,
  0x1f07191bd3dbdee4U, 0x2933056c1e00ddd1U, 0x34e72203c3f40722U, 0xc8ec1a421e0a97f4U,
  0x55f202bd344cbb52U, 0xccf3e2b3822cef9U, 0x5fca16d70d24d7f5U, 0xd8f0cd2c0afef70bU,
  0x434e1e2b14fce03eU, 0x9826caa112bde0f8U, 0xbc44d527ba4aca19U, 0x1e14665f4fbc7e4U,
  0x28101df8e812bc2fU, 0x3ddcc6e61561f1daU, 0x434409e1220f1510U, 0x8102b8ef0487f537U,
  0xdd2b2302f22008d1U, 0x471c5e433b4a96bbU, 0x2ce6031bd6c8ca3aU, 0x3118012a163cf5dcU,
  0x83cce1f1fd8cb55U, 0x9a04fefbaca93026U, 0xa4d1df701f3170aU, 0x1bd9d2e9273fbe28U,
  0x43ecea1f29cafbc7U, 0x341413672d52cd10U, 0x4f34d228f9390c0dU, 0x35d5432f41250b03U,
  0xf1de1d3cec8c6daU, 0xd6c1c6f331ff31a9U, 0xccfdf508b0021b47U, 0x152c3850cb3a11c8U,
  0x482bdc44f222b322U, 0x6816f9fa05293545U, 0xf91150c920f21941U, 0x4250d17f220abdc2U,
  0xf7ef0beec14cb7e4U, 0x7bf32a285649f5a4U, 0x29c8e2c5539d0ee7U, 0x584dcd39435efcd6U,
  0x233dfb054d91fa11U, 0x1cf0a720e2191e19U, 0xe71af41012f40cf0U, 0xf2fff3e8b01f29dfU,
  0x38e6f9d8ff0f01U, 0x26f2dbefd91d2e24U, 0xe33005fbde0e01fbU, 0xf4078aebf8193418U,
  0xefff10e128e0f61bU, 0x32e2ece8e4002921U, 0xe723e9110b2732fbU, 0x14fac20bd1f0eb10U,
  0xe21e9260ad9fa07U, 0xdf2081f9bae0eff5U, 0xf716f1fd23f1222bU, 0xf9eaa700cb1c1a10U,
  0xe3effef2dd0339ebU, 0xcf9fbbeb8c7ebdcU, 0x624080c10dc24fcU, 0xabcfffffdfbU,
  0xfffff142fffffeb3U, 0xfffff8cefffff929U, 0x4b5ffffffc8U, 0x5a5ffffd7ddU,
  0x76c00000ccbU, 0xfffff82e0000038aU, 0xfffff661fffff4b0U, 0x29be4be81b3f0428U,
  0xe7cd4b483a1e17eaU, 0x752e0b7ebf701dcU, 0x1f1dc13727d81bfbU, 0x50404f4aee5ecae0U,
  0x1f7f4b17fd0d4a47U, 0x1dee141bce0cb017U, 0xf2ddf5eb0e2ad9fcU, 0x18a30000059dU,
  0xfffffe0cfffff6bbU, 0xe8302d3cc3b90750U, 0x452ad759c9d2ffd3U, 0xc4ecb7e149e3f720U,
  0xc48f7f134eddded7U, 0x20d84100f5217ed5U, 0xc929ee49d9b20727U, 0xbfe966ec31c36ec0U,
  0xe512ee0c58bad1afU, 0x13000000661U, 0x146b00001a66U, 0x32800002267U,
  0x815fffffedfU, 0x127000001b58U, 0x4300000d68U, 0x1c0400000daeU,
  0x7ad000007adU, 0xf00f04f904f401f9U, 0xe4fbf2ff11f804U, 0xf5d706fdfcf50106U,
  0xf2f707e8fafcf20aU, 0xeefd0eb9fcece9e2U, 0xf2f8fcc40602f6f7U, 0xaeff9fc030a06fdU,
  0x7f9f9d204fafcdfU, 0x3ff06ccf6f80104U, 0xfdf0f3e203fffefaU, 0xfff8feeedcf2eff6U,
  0xe8ee02f4f8f9f6f8U, 0xecf8fc0a01f8fc07U, 0x2322fbfbeef501f5U, 0xfe05fe090208f4f8U,
  0xd1f6f8f5faf4050aU, 0xdefbfffef2eae8e6U, 0xf80605fe0408fffaU, 0x5e6dbfafbff00f5U,
  0x9f7ed0ff5fef0daU, 0x1ff11f806fafeU, 0xf9f5f8eff9fb01fcU, 0xe8f0f212eaf2f9f9U,
  0xf6f7f9160506f8f4U, 0xea0a0df709f8fa00U, 0xf6140d0df8f9fbf3U, 0xe4fc01f7f9fafbf8U,
  0xd5f8fbd4fcfafe00U, 0xf7f1fefcf2e7fcf2U, 0xe08f01406f6fb08U, 0xffe8f5f9fe000afdU,
  0x301f2fa03f202edU, 0xa0902f9fbfa040bU, 0x5cfe6f6f6fa0706U, 0xedf3e9f7f3ece9faU,
  0xf009daeff7000b09U, 0xe71bf605f302fcf9U, 0x20f91111f70805fdU, 0xecf8070d0809fcfeU,
  0xeb00fdf00b07060aU, 0xecf305e704f1f3f8U, 0x4fbf9effff60afbU, 0x101e9fa05fa0af7U,
  0x40210daf4fdf404U, 0xff0b23f404f7fdfeU, 0x2e9c518f90603f4U, 0xecf21efdf5f6f207U,
  0xf60814f3fdfa0103U, 0xf113fe0dfef5f7faU, 0xf50813f90804f407U, 0xf5e20e0200fa03f8U,
  0xf5e7d4f6f5fbfdU, 0xe03023d19eaf71eU, 0xd0125ff0508f7U, 0xfc12ede8010600ffU,
  0x80edf240619fd08U, 0xbf317fe0407ff03U, 0xf2dcea14fff50604U, 0xf00feb07e305100dU,
  0xfb08fcd2f80406f8U, 0xf2f7010103fff2f6U, 0x2fe060af900fefeU, 0xfe040cf20309f702U,
  0xf7ef00eaf9f40400U, 0x20fd001d09f8ef16U, 0xf7fc100208fff704U, 0x91804d0fe080503U,
  0xfd0b16e9fc1d0cfaU, 0x2ebf7f6f601fa06U, 0xfbe0fafafbf9f501U, 0xf91ffbe8f40b0211U,
  0xf90911fcf6fdf706U, 0xee0310020205f7fbU, 0x3020e0cfee20800U, 0xef06fef80b05fb01U,
  0xfef103f8f4f60bU, 0xfdf0f80708faf4e9U, 0xf20d0d000603ff09U, 0xe0805ed08fef905U,
  0xfe0a12fff81015d8U, 0xfff6e80c02f50502U, 0xf5dbe2f7f908f805U, 0xfc0e0ef6eff9fffeU,
  0xff05f7f4f5f6fff5U, 0xf21409f503050301U, 0xbf00207eb0201feU, 0x9ecfffaf6f5f5f9U,
  0xaf2e80dfb07fffbU, 0xfeff0000faf5eff1U, 0x7010cf2fd00f909U, 0xd04faf600fbfc09U,
  0xfe1017fb0606fdd8U, 0xee1303f6f3feffU, 0xedf1da25f6f90a02U, 0xf8fb0cefeef40cfbU,
  0xfe0805e802080cffU, 0xf717fe0306fef9feU, 0x3f21105ff150005U, 0xfbfe0b020a020100U,
  0x19f0e7d3f7f50408U, 0xe1040ae40701fbf1U, 0xf10f06e90202fb03U, 0x214060bfd05fc01U,
  0x10aead20406fffdU, 0xdfff20700fff908U, 0xe910f71d05fc0301U, 0xfef609f6ea00ecfaU,
  0xef00020009ff00U, 0x1d11fff400f205ffU, 0x10d08fff70908f2U, 0xeb00f704fbf8f703U,
  0x31f0f128f7f50102U, 0xe8f6f0d40cfefb13U, 0xf0090b150205f807U, 0xf921150d06f600ffU,
  0x1f7f1f8020c0bfeU, 0xfdf7f0f9f505f507U, 0xf222e621f809f807U, 0xf0f8df06ec0ce70cU,
  0xfb1203fe05080208U, 0x3080afd0603fdf9U, 0xbfe0f00fbf0fc05U, 0x5fffa05fcf90602U,
  0x2feffdf9f7f50001U, 0x1302f00b09fff5fbU, 0xfa040b09fef8f602U, 0xa160ff802060209U,
  0x110df80bf31113f6U, 0xded0ef608f3fefbU, 0xf10f14fc070807f5U, 0xfb1adcf3f80d12f6U,
  0xf81e08f00af80405U, 0xfff610fb080006feU, 0xfe403feeee50003U, 0xaf4f7fefcf70806U,
  0x10509ff0703fe02U, 0xa00f1e3f1f6fbf3U, 0xef06f6d9030b050aU, 0x5160fb6f9f9fcfeU,
  0x5fb18f90008fbe1U, 0x9edf801fc01f50bU, 0xec111b0301f90606U, 0xed161ddfebfe03e3U,
  0xf90d0e0f05fe05f6U, 0xdedd00f3f50002f8U, 0xe9080dfff0df04f6U, 0xa0d00fcfdfa08f4U,
  0x6f7fbcf03f6f80bU, 0xdf07f8d9e508f3ebU, 0xf3faf3cf020b0af8U, 0x50d16d0fdfcfefdU,
  0x702f0fe0bf80dd3U, 0x8e80014fefffa0aU, 0xf4f5fee30b0304f2U, 0xea050ee6fce8edd0U,
  0xe8ff1505ff0805faU, 0xf804feeef300fcf8U, 0x180a0b0bfb0200f4U, 0x10010bfcf7f90601U,
  0xecffffdd010201ffU, 0xdf0af6e2c206fabeU, 0xe5041be3f70100f9U, 0x9edfb0106f405U,
  0xceb03fd06e2e5faU, 0xfcf5ed09f7f5f406U, 0xfceecf030503ff07U, 0xf1f5fa04f3eaf8faU,
  0x1f8fbfff80605f5U, 0xec0806ff05f906f9U, 0xe90304feef02f5faU, 0x1af2fff8fc05fa07U,
  0xff9fae3f9f7f5f6U, 0xd003f9d50602feebU, 0xf504023908030004U, 0x11015faf50bf402U,
  0x10e7cd05fdf3dd00U, 0xd03ff01f80109f5U, 0xdece0fef5f80502U, 0xeee1e60e05f7c508U,
  0xf4fee80bff02fb03U, 0xffea0efdf7fe0306U, 0x100f0cee0801f7fbU, 0x5f3f7e1040909f6U,
  0xe4faf6da0204f8f9U, 0xed0500c1f9f1ecd6U, 0xf606f9d504ff0af8U, 0xbf1f4ddfcfcf5f7U,
  0x6ea04f8f5f1f2fbU, 0xf6fe02dd04f70102U, 0x3fb01dbf7fcf6fdU, 0xf2ff2215dffafdf8U,
  0xf2e903fff70903feU, 0xe8ee01f607f307f6U, 0x242e0a10f5e2f509U, 0x30408fe02f70603U,
  0xc70b0be4fbf80200U, 0xf90b020ae0f7f7e3U, 0x6030b12f20502f6U, 0xcdacce70705f8f7U,
  0x7f2ea08fafcf3deU, 0xfff9f30007fef904U, 0xf9d6dcfbfa06fef3U, 0x9010030f7faedf6U,
  0xfbf4e71206010006U, 0xfc09fff9faf2f4f8U, 0xe606060df2f8f9fbU, 0xd4e2f80efbfff6f7U,
  0xdc05f8be00ff0302U, 0x802f514fafaf7f8U, 0xd0af4040808f603U, 0x2e5f6ccfcf704f6U,
  0xff01e7fefff7fc01U, 0xbfcf700faf4f9fdU, 0xfbd8d0fdf50707faU, 0xfe040c0bf5ee0ef1U,
  0xf80909f30503fff7U, 0x114fc0806f502fbU, 0x9f90404ec140302U, 0xccfcfe01060706f4U,
  0xf6fff0dc0704f20aU, 0xf3f5f6f6f6f4f40cU, 0xfcfcfffa0301f806U, 0xfcffe9d405fefbf7U,
  0xd0310f9f503db0bU, 0xff60afafefe06f8U, 0xfaf3d819f909f605U, 0x1ff1af5ee0af1f6U,
  0xf90705d5f7fe08f4U, 0xd515f9110307faf9U, 0x605010406160412U, 0xfee7fe08fdff03f5U,
  0xed04f7e30402f4feU, 0x14f80c3706f7ee18U, 0x70f052800010303U, 0x60dfff708faf7fdU,
  0x601ed130511fdffU, 0x3e80f08f8fe0408U, 0xf6e8fa17fff80af8U, 0xff17f5ebec140716U,
  0x309f9e104fa08f6U, 0xdbf1040a06f5f3feU, 0x17f40006f904020eU, 0x22f00dfafefbfffeU,
  0xcfdf8fdf700f301U, 0x501071101ef0114U, 0xdd1001eb0901fff7U, 0xf80406f2f408f7f5U,
  0xfe061409f50a00f7U, 0x5e2e9f3f701f402U, 0xeed7e3e40504fa04U, 0xf509f8f2ec0ef802U,
  0x2fe0e01f8f604f6U, 0xf70fff090af503f7U, 0x5f901fa05ed030dU, 0xf5f302ff06f4fafaU,
  0x7f50516fcfef406U, 0x30cff0efdf402eaU, 0xdc0502df04010bf9U, 0x310030cfffb03f8U,
  0xfa03fd05060506e1U, 0xfce6e2fcfa05fdf6U, 0xfcf1e7ee00fa0302U, 0x10b0a02e6000506U,
  0xefff6f8f905fef9U, 0x1c09fe0b04ff0504U, 0x4d70d06f8ed000eU, 0xfec09f6f602f9faU,
  0xefdf432f9fbf6fdU, 0x40707faf2f6fc05U, 0xf2fb0cc7fd02f5fbU, 0x60d0c03f605fbfeU,
  0xfd0e05faf5f2f6e2U, 0x5e8f4fd09f3fa08U, 0x113fafbf5f6f8f4U, 0xf9fb1be4e8f6f0f0U,
  0x6e3e3fefcff0607U, 0x4120d080508feffU, 0xf9ef02ffee05f905U, 0xee01f9f7fdff02f6U,
  0xaf5fea90b080008U, 0xf4fcf7bcfd03f3ccU, 0xfcfc0af5fcfc0004U, 0x208071a0701faf7U,
  0xff03e8e2f7f0ede4U, 0xf8e3dd11040200feU, 0xf8130e0efaf7f5fdU, 0xfeef04f8f502dfe5U,
  0xdffe10afa09fe04U, 0xa0f070308fff8ffU, 0x104fc02ff0af502U, 0xecf40605fb08fcf4U,
  0x28fff50f010700ffU, 0xfb03f8f204080116U, 0x14020b1afefd0009U, 0xfe1c0e09020501feU,
  0x601f8fb02f6fef3U, 0xefffebfb02fcfcU, 0xef1ae8fe04020af8U, 0xfdfec91bff17d604U,
  0xc1e0be40106fb00U, 0x1206ff0e06fffbf4U, 0xf3f501fd0defff0bU, 0x4f007ff04000304U,
  0x27f7f4e3fc020409U, 0x1000f2effefdf2edU, 0xe209ffe8f6020206U, 0x11024effbfefb03U,
  0xf904f4f9fff00addU, 0xbe7dff3fe05f308U, 0xee131b0201fa0104U, 0xff13f4f7f40e1df8U,
  0xf7031d020afafafaU, 0xf2ed0e00fc030006U, 0x7dc0402f3ff0803U, 0xef302fbfd02f6feU,
  0x13f6001d03000200U, 0x505e9d8fef70710U, 0xe5fcf9e103020a0bU, 0x418fddb01fbf5fcU,
  0xe0a0ee8f5e5e9f3U, 0xfcd9defef9f3fef7U, 0xed14eef7f9f8f700U, 0xfb0b19fc000d0ef0U,
  0xf4ffec0f0608f603U, 0xfbe10202fd07fcfdU, 0xeff811080be10b04U, 0xd0100fe0306f506U,
  0xfcfc08d301f608fcU, 0xe403fbdaeaf9fbe9U, 0xe7f400cb04fef7faU, 0xfd0d06f2fdf5040aU,
  0x1f0edf20ae9f1e7U, 0x5e5e9f50801f9fdU, 0xfef223cf07fe0904U, 0xf3f8eaf2fcef09daU,
  0xf5f1ee1903060502U, 0x909fb00fa03f5U, 0x501160d000efaedU, 0xfa0506fa02fd07f9U,
  0xf2fe04f7faff0802U, 0xe803ffddcffe03ddU, 0xda0113e7fbff02fdU, 0xfafbf903f5070505U,
  0x5def9cffde4ebf3U, 0x5d8e01606f80701U, 0xfeeed807fdf60601U, 0x2f2e3effcec1306U,
  0x3f7e8f304030b04U, 0x409f60c00f406f4U, 0x6f804fe030ff303U, 0xdfaf807fb01f4f6U,
  0xef2fe000206ff01U, 0xd005fcebfdf011f5U, 0xe40df62afdf507ffU, 0x2eefc03f8f708f7U,
  0xddead0a08d9d70bU, 0xff0501f7f7070801U, 0x603d50100080bfdU, 0xe4fce3150006d904U,
  0xfafbe8fa0b0209fdU, 0x2d904eff8040608U, 0x192816f802edfef0U, 0xfc060102f8fb02fcU,
  0xe5080abffe0702feU, 0xf508faddf1f0fcd4U, 0xf503f4df08f5fc03U, 0xfde8fecf010905f6U,
  0xffe9030f08f4f111U, 0x9fffaebfd04f5fcU, 0xf9e6e9daf9fbf8ffU, 0x4fb1c10f9fafbddU,
  0xf1f80e04f5f6f7f5U, 0xeaedfffe030401feU, 0x1c32101beae5f6f8U, 0x207080205fbf701U,
  0xbd0f05e808ff0303U, 0xeaff10fcd2fff9f1U, 0x7010b05070602U, 0x7e2c4edff07f604U,
  0x15e1e30602f3e5f8U, 0x9f00001f5f9fe07U, 0xfad8dbf6050406f8U, 0x2070c2ff7f9e3faU,
  0x3f40511fcfd0902U, 0xfa22f9fb0603f6f3U, 0xdc1e0214f8050107U, 0xddff0105fdf50408U,
  0xd70b02be03f2fc0aU, 0x60a1004eff906e1U, 0xfa08fcf2020306f6U, 0xfef1e3f907f902feU,
  0x106f005f9f6eb01U, 0xff9fe030401f609U, 0xbe7bc15fd03fb04U, 0xf90d19f3f5e300daU,
  0xf70016f101f80bfdU, 0xfcfe080a06f802f9U, 0x8f9090df712feffU, 0xe800ff0aff050507U,
  0xfa0200f603fb08f9U, 0x3fb0c11f1020b06U, 0x10fdf91af7f9fafaU, 0x8f5def5080208U,
  0xfb05050303fbe2ffU, 0xde9f710faf4f900U, 0xfd02cb0bf80603f5U, 0x7041ae402f6dee8U,
  0x91001da08fc02f8U, 0x5f9f90703f6f6f9U, 0x70c10170f07010fU, 0xcea0408fbf7f5fbU,
  0xeff4fefb08fd02fdU, 0x1020b0cf6070114U, 0x1310fdf1f603fd0aU, 0x606eedefdf700ffU,
  0x4ecf40a0100def0U, 0xffe20901f5fa05feU, 0xfcf40d0b0308fdf7U, 0xf90911e0f6feff08U,
  0x2090dedf5fa0908U, 0xd9f703f906f9f5fcU, 0x1cf0fe090804f40cU, 0x1bfbfaf6fdfcfb03U,
  0xfffcffe5050505f6U, 0xfc060528eff2fd03U, 0xe60e0d0008fc0bfeU, 0xf111fa03fe0304ffU,
  0x9fcfc1bfdf6f2eeU, 0xedcd302f7f40007U, 0xf8d8f1f40302fe04U, 0xf818f202f50d16f3U,
  0x4f90d0cff010afeU, 0xe51e0cf6f6fb05f9U, 0xaff07fdff0bf903U, 0xf6e50803fe0008fcU,
  0xff7fc15050006faU, 0xfa0cfdeaf9f6f0dbU, 0xe10500ca00fcfe04U, 0x81cf40c0707f7f8U,
  0x102e609f0f4fbf3U, 0xf9e0def80902fdf8U, 0xf6ee00f4fefdfcf5U, 0x30afeeaf4fdfb04U,
  0x1f7f3f800fef807U, 0x18f9fffbfff602ffU, 0x15e50c0ff7e205f8U, 0x805f6f6fc02fdU,
  0x22faf91702f30807U, 0x20408ddfbf800fbU, 0xe1fd02d70509f7f6U, 0xf7260e07fef904fcU,
  0xfb1608f0f9effcdbU, 0xfae2dcfc09fbf60aU, 0x20eedf8f6020a03U, 0x1f901f1ecfcf3dbU,
  0xee1db14050b0500U, 0x150f0207f9f204f6U, 0xf20509fc0208fb0dU, 0xee18fd01040100fdU,
  0xe08f8c6fc04f2f6U, 0xbfcf1b3fe08fce8U, 0x1508f307f50009feU, 0x31700fffa0af507U,
  0x50ddffafbf4e6f4U, 0xf4eee02407fd0403U, 0xff132ffcfaf804fcU, 0xf4ff0e08f101ece0U,
  0xc09dd1ffbf5fcfdU, 0xfe020c1705fff6f2U, 0x150a05010ff806fcU, 0xfde10d00fbfcfffeU,
  0x1c0cf90204f5fd02U, 0xfa09f5ed07faf519U, 0x15fa0b1404f8fafbU, 0xa15fa01f8fdf2f7U,
  0x40d00e204e6e4faU, 0xa0915e601f8fbffU, 0xfe17f61cf9060701U, 0xf70ce10bf91ccb0dU,
  0x70a19dcfcf909f4U, 0x815fbf2f8fe05feU, 0xecea08151408ff03U, 0x2df06f6f805f701U,
  0x14fbfce1fcfcf7fbU, 0x1008ffd1f107fad8U, 0xda0709e80401fcf9U, 0xf8040ff9f309faf9U,
  0xfe06fee8eef102f1U, 0xfcedf2f2fdfbf705U, 0xfb151501fbfd05fbU, 0xf80af2e8ef151b06U,
  0x4e70ef501fd0106U, 0x18f4f611fbfefc04U, 0xae304ff0e130bffU, 0x4ff0af606f909feU,
  0x19fc033102f6f505U, 0xed06f2d5edff0912U, 0xd700f4d1070108fbU, 0x4100df8f80bfeffU,
  0x100fff1f7e4e4f5U, 0x1d0dae6fdf4f5ffU, 0xf210ef12fcfbfa00U, 0xf306f6ebfe0d051fU,
  0xf603d6f3fb08fb08U, 0x9ddfefffc00f8f3U, 0xece7110c03e8fcf3U, 0xcfdf90402f7f500U,
  0xa0a17dd0afa0401U, 0xe70dfff106070400U, 0xe106fdcff701faf7U, 0xfd0a12e0f5090504U,
  0xfef2e5f3fdeef9efU, 0x3d7e4fdfa03ff07U, 0xfafd22f9f8fbfc08U, 0xf200ddcf030804ffU,
  0xf8e6d412fb0bff01U, 0xd0401030707ff06U, 0x10f11b031b0c08efU, 0x40702f6f705fdfeU,
  0xf2010ff2fef5f4f7U, 0xde0ef5f7d90e09dfU, 0xe804ff020906fa01U, 0xf8eff0ebff030100U,
  0x4e9eaf205dde2ebU, 0xfef2ebfaf4fffd04U, 0xfb07da0402f8fcf2U, 0xf902f6f8ef060f03U,
  0x2f5ec02f6f70304U, 0xfb07f508fafff4f3U, 0x1b0710021000fa09U, 0xbfcfcf3f808fc00U,
  0x10f6110af9fefd06U, 0xca00f40ce9082412U, 0xef0cef33f5f50909U, 0xf6ede904f6faf705U,
  0xdd4b50af0debff8U, 0x7ff00f8f8fafdf7U, 0x7f6e40b09f6fcf6U, 0xf8080308fcfbee17U,
  0xf0f3e70bfffb04f9U, 0x5de05f8f805fc07U, 0xc14100100f10907U, 0xf80c0fff02fff8f5U,
  0xe10bfee7ff08f907U, 0xe5fd0ce2e7fbf3c7U, 0xf401f7d9f6f9feffU, 0x8ea03dbfafef701U,
  0x18dbfa2503f1f9ffU, 0xe6f60406f50709U, 0xfbfcf8eef509fd01U, 0xfef51f0bf8ecffefU,
  0xf1fd0ff4fb000af7U, 0x3e3fcfb07f5f904U, 0x14171a16ffe50209U, 0xf8f60f08fa0103fbU,
  0xc2000001fafdfb06U, 0xe30e03d7d309fddfU, 0xf0fc08ec0600f9ffU, 0xfae8c7f9f7ff0006U,
  0x1fcbea0702e4e3dcU, 0x10e303010402fa03U, 0xfef2e2f6fa0afafdU, 0x410130601fef8e3U,
  0x6fdf6fc0807fc03U, 0x11140308f6fd05f4U, 0xda13021ef7050c03U, 0xd80a06faf709fafaU,
  0xc4f810f10a06f908U, 0xff0106dfd90bffdeU, 0xfa02ffea0807fef8U, 0xfcf5d3faf408f602U,
  0x6efe601f9f4e0ecU, 0x7e6010105fafafeU, 0x9e8d927fff60803U, 0x111b02fc09f2f5f8U,
  0xff0009f7fb0900faU, 0xff13f50c01fcfd01U, 0x3030517160a090aU, 0xd6ef13fb0101fafaU,
  0xcf907fffef9f3fcU, 0x8fe0dfdf606070cU, 0x70cfc1bfffd09f7U, 0xffdf2f50502f80aU,
  0xfbfb0d0406f7e006U, 0xf9f2fe020101f605U, 0xf806dc0b01f6fcfaU, 0x101702e30704f8e0U,
  0xff0c06e1fc07fa04U, 0x8fbf206fd080204U, 0x1fe0900210bf303U, 0xfffe120409000809U,
  0x2f70c05f5f8f800U, 0xeb0202fae9020024U, 0xaff10f1fc0409fdU, 0xc0cfdfa0405fcfbU,
  0x9f3f70900fde801U, 0x8e7000103fcfcf8U, 0x1ed21f905fdfaf9U, 0x2011bd5f40613f9U,
  0xffd10e706090901U, 0xf5100401fd03f9feU, 0x10e50d091f0efa11U, 0xf5edf9f9f9f804f5U,
  0xfcfff5d9fcfaf403U, 0xf2fefd18f206f200U, 0xec0d0c03050001f9U, 0xf8f7f7fa0404fa0aU,
  0xf9f9de1ff5f0e605U, 0xf9e5e60109f70108U, 0xe3f001f5050200U, 0x807ede4f20d1304U,
  0xfdff0307f708faf6U, 0xeb28f5020400fd08U, 0x13fe01fb0f12000eU, 0xf9e8fbf80afc02f9U,
  0xdfb09130a0701f9U, 0xf1fffbfae9f100e0U, 0xfb050ce708f90608U, 0xf3110223010bf803U,
  0xfe00f308f2f0ecf2U, 0xf5fdf0ee07fef8ffU, 0xecf2fef5f5060108U, 0xf6010cf1f20a1dfbU,
  0x6e9050d06f50303U, 0x120900f8fc05f4ffU, 0xff9f702f8f60407U, 0x100a00f90307ff00U,
  0x16080a1d06f9fefaU, 0xf30700f704040202U, 0xfa0ffa0cfff5f807U, 0x81a0512f40705f5U,
  0x40bfbfaf6ec0d03U, 0xa00d60e08f809fbU, 0xf017000c050bfd01U, 0xf5f7fa1cfdfcf5ebU,
  0x2f8e72ff80a0a09U, 0x15f10604fafd04f3U, 0xeff00ff0d050e0bU, 0xe912fe050808fcf8U,
  0x1d01fec306040106U, 0x130502dc04030d19U, 0x1804f70af50001faU, 0xfa1717fdf60a05f5U,
  0xfa0cf0ec04f2e0fdU, 0xf5f8ef0e0105f308U, 0x1b340bfaf902feU, 0xebfc0b13fcfb0504U,
  0xfe1b060ff9fc09f9U, 0xf3f80803020508f7U, 0xcef080319050306U, 0xf0ce0d0f020509f8U,
  0x14fe02e8f9fef901U, 0x6fbf1dc030d09f9U, 0x2906fb08fdf7ff01U, 0xf91bf7f705fa0200U,
  0x30708e003e0d3eeU, 0xff1134f102f2f6fdU, 0xf40e1120f80307f4U, 0xe8fbf503fa0be516U,
  0x2031ad1030503f4U, 0x918fe06ff05f7fdU, 0xe4dd10ff220df7feU, 0xf5e30f00fdf8fd09U,
  0x16f900f9fd020603U, 0x6f4f4c60700fbc6U, 0xe50301d7f501fc06U, 0xb0a13f4f80206U,
  0xfd02fbe6f5d9f600U, 0xf01f6f4f90504fdU, 0x410f70ef9f80304U, 0xf5fb03db02171913U,
  0x8d52ce5f806f804U, 0x1905fa0ffcfdfaf4U, 0xf1ef0c002019f8fdU, 0x1f806f102f801f5U,
  0x21050a0006fe02faU, 0xe402f9def00afafdU, 0xe0f7f3d102fb0306U, 0xfd1ee9f505ff03U,
  0xcfbe604f2e7d4f4U, 0x5d8dcfffaf8020aU, 0x317132c01fe01f5U, 0xf209dfeaf605f42dU,
  0xfef9d3f600f50203U, 0x180105ee00f302f9U, 0xe9e71608060101fcU, 0xbfaf902f7f7f700U,
  0x1a000ff40507050bU, 0xf6fef7fb1d00fe17U, 0xe3fcf1dc00f5fefbU, 0xfafa15ef010afbf8U,
  0x1eceb06f4e50a01U, 0x7e9e5090002f801U, 0xa0a270d02040af7U, 0xf3f6dad5021fe604U,
  0xf6dcdefffa000af4U, 0x60307f6ff03fb01U, 0xaf50b0422f40503U, 0xfa020e060008fc02U,
  0xe20514ddfff507feU, 0xe611f501e8fd0e05U, 0xf602011d070103f9U, 0x4dc060b060301f6U,
  0xfe5e8fbf6defcecU, 0x2f0ebf608070506U, 0xf90801020901f6f5U, 0x1fff5fdf6273b0cU,
  0xeeebe4fb00060902U, 0x204fafff9f30102U, 0x170f1a060b03f8f9U, 0xb09fdf0fbf8f4faU,
  0xfa0a190804f3f307U, 0xcc13f316e70426f5U, 0xedf8f91d02fe0a04U, 0xbe9eb05f406f207U,
  0x14d9c4fffcc8b408U, 0x30afe01f7f80003U, 0xbf7fb13f80a07f9U, 0xeaf4070df0101a16U,
  0xf504edf8fd07ff08U, 0xf1f207ec06fe00f8U, 0x11042608fff505feU, 0x120407f7f80afa07U,
  0xe807f80201f90503U, 0xe205ffc7e303fec3U, 0xfafc0cd405f50406U, 0xcfbfc0a01050206U,
  0xdcff20a03d5edefU, 0xfddefded03070706U, 0xfcf8edef04fa03feU, 0xfef124f2fae4fcddU,
  0xe6f926f8070702fdU, 0x2d8f70202060102U, 0xd1c1823f8000003U, 0xf000c000107f700U,
  0xf005011cfdf3fa09U, 0xdb0a09c5e30dfff6U, 0xe10604d606fcfd08U, 0x4ffe5f10008f207U,
  0x10c9d5fa0dcedaf7U, 0xdcae3e5fe050103U, 0xfaeae80405030004U, 0x70e16f6fdf9ddf3U,
  0xfd0b08ebfb09fef9U, 0x1924070c08f4fb00U, 0xed16111105fefbfdU, 0xea0a1108fb080405U,
  0xd4fe0df3fbfdf8fcU, 0x1040ae7db050b02U, 0xf00a04100304080aU, 0xf8f5d9eef607f3fcU,
  0x11e1c9faf3e3c6f4U, 0x16e5ff05f3030201U, 0x805ff2d0203ff02U, 0x1d12fce30cf7e90fU,
  0x10fbecd6fd0206fdU, 0x10efc1402fafe03U, 0x7f50e211119f800U, 0xe5e90ffefdf702ffU,
  0x504fd00f600faffU, 0xfdfcfde7ff04feffU, 0xe0428f7ff0b01U, 0x2f000fe01fe01U,
  0xf4030206f0dd0eU, 0x5ef00f50003f6feU, 0x806eb07050701faU, 0x710ebdc0a0c01f6U,
  0x601ffe30508f5feU, 0x14f8f51809f5f803U, 0xeafaff05260efd0fU, 0xf1050905fd0af901U,
  0xef0c0ed9060004f9U, 0xe4fd0df6f303fa0eU, 0xf20bfcfff9fd0902U, 0xfbf6fffc0502fefdU,
  0x1f0d7f608fde6f8U, 0x10f4e1fd0802f4f8U, 0x2f71fee060907f8U, 0x301fddcf70123ffU,
  0x805faef0908fcfbU, 0xf809060e00fffaf5U, 0xf9e206111d10f10dU, 0xedee0302fcfeff08U,
  0xe70703edfbfff703U, 0xf50dff10000c000bU, 0xee1003f50802fd09U, 0x4f9da1502f8fafdU,
  0x3ffee01f9eee305U, 0xfdf7dafcf8f30207U, 0x9eaf2f20604f6f8U, 0xfd14f0e2fa041e15U,
  0x3fffa00f9fef8fcU, 0x42f080c01f70701U, 0xafffc081526fb05U, 0xf7faf40102fdfcfaU,
  0xfef8fa21f90603f9U, 0xf1f504f9ff04f2e6U, 0x6fd0de6fff5fa04U, 0x404f711f20bfa0bU,
  0xff04ea05fbf2f5f6U, 0xf903ecf403fd0107U, 0xf3f3f111f701f9f6U, 0x7f6080e010726feU,
  0xbf7fcfff7080909U, 0x1813f60e0100faf9U, 0x14fcf802f5041009U, 0xf070507070206f9U,
  0x20f6020afc02fe07U, 0xfdf401e90202f9eeU, 0x20030000f7fefe05U, 0xfa09f3edfc070602U,
  0x51ae6eaf4e8fa09U, 0xc01f0f0f903070aU, 0xff040e13f8fbf507U, 0xfcf7f1110400ffffU,
  0x4f2eaf305fb0406U, 0x1dfafd060403f601U, 0xfc08070f1304fe05U, 0xf30afc08fdf50103U,
  0xb07f8dafaf6f303U, 0x8fefaf1f5fff711U, 0xefb04d0020102f8U, 0x90c18e0f4050006U,
  0xf61502dd04e9eb04U, 0xf80e01f8f7010004U, 0xfb051c0dfcfe0704U, 0xfef7f70ff004f9f9U,
  0xfcfc19e30afd09f4U, 0xfb0b040efaf6f5f5U, 0xf11203050efc03U, 0xfbcf0e100905f5f4U,
  0xcfcf2baf5f5fafaU, 0xefcecdfff0909e4U, 0x11fefdf5fb090b07U, 0xfe0dea1a07f9fefaU,
  0xb04f9fb07e2d3fcU, 0xfb022beef7000109U, 0xf30f1218fffb04feU, 0xebfff1fc031aee18U,
  0xffeef9d4fbfd0001U, 0x1715f60f0308f8faU, 0xdae1010123000108U, 0xeef406fcff04f7fbU,
  0x2307fe17fa00f9f9U, 0xf0f603e2f60c0ce2U, 0xdafb00ca050701feU, 0xfe10001605f80108U,
  0xfe00f1ecfeeaf700U, 0x7eef4eef9f8f70aU, 0x41bd41dfcfc01f6U, 0xfef9f1d4f61e0d07U,
  0x6e50ae5f6fa02f5U, 0x1b180d1001080000U, 0xf1ebfff82911f60cU, 0x4ec07f1f507f608U,
  0x250909f400000103U, 0xe8fff4eef205fb05U, 0xe4f605060800f80aU, 0x70111e0fd0500f7U,
  0xfe08def2f3e0cffbU, 0xffe4e215f4fe07fdU, 0x1b1d1b08f60406U, 0xf5f8d6f60010ed11U,
  0x1f2e2ef0afefef7U, 0xfa060b0cf8f70601U, 0x7e309f8f700f9fdU, 0x1d04f905fe08f709U,
  0x14001306f9f206fbU, 0xeaf7f0f30800fe19U, 0xe6fd04fffffaf9f9U, 0x4f306f000fefafcU,
  0xfdf4de0df5e5fd1cU, 0x8e3fc0709f80601U, 0xfb052aeffc04fe00U, 0x2e7dbf00523ebeeU,
  0xf1ddf20b070705fcU, 0x109fb04fb060102U, 0xc03200519f3f800U, 0x90603fc020907U,
  0xcd0716be01fefc09U, 0xf8fcf2fdfd06fb14U, 0x5f4030ef6f50406U, 0xffcef211f703f3feU,
  0x8fce314fadb0ae1U, 0xf01ddf908fcfc03U, 0x3fcf20d04f7faf7U, 0xfafcdcf0ff1a32f9U,
  0xfdf1f2f9ffff00feU, 0xfb1bfc010103fe03U, 0x50613f8f61002f7U, 0xcfd0c01fbfb0809U,
  0xec0c13f5fbf9fc09U, 0xd107f4f7ed0714fbU, 0xf8fff712f9fdf609U, 0x2cfe1fdfc01f301U,
  0x10e8d0f606c7c0ffU, 0xc150af90208f301U, 0xfc01f314030407fbU, 0xfff2f3fbf2121c16U,
  0xeb020108fef60506U, 0xea0003fdf905fbf4U, 0x8f52bf8f9f411f4U, 0x40116f1fef8f5f9U,
  0xec04f3f6ff06f8fdU, 0xdd0604aaddfe04b5U, 0x6fffc0109fdfb0aU, 0x1009f103f809f408U,
  0xed201f009d6e7f5U, 0xffd70df3fbf7f508U, 0x801d9fc08f8fd04U, 0xff108d9f2e1ece4U,
  0xee0622f908ff02f6U, 0xf2d6fc01ff03f300U, 0xb161d2b02010102U, 0x10f818fd0bf508fbU,
  0xecfcf92603ff0009U, 0xc61b07c2c4fef6f9U, 0xec0c03d3f3fd0809U, 0x2f7ed13f3fcf8fbU,
  0x16b3bc0b0ec5c7f9U, 0x9cee0fcf803fe02U, 0x7eedff806fa01feU, 0x11fe03e7fbf7ceecU,
  0xfd1c10eff9ff0509U, 0x151012040b01fefeU, 0xf4160e130d140702U, 0x5f50f02fcfaf3f8U,
  0xda00f1f604f8f507U, 0xe60d06c0e30df6fbU, 0xff1011f2fe010b04U, 0xfceed7e5fcf90008U,
  0xacfcbe305dbbff8U, 0x16d00104faf807fcU, 0x2f7f11109fbf704U, 0x1e02e2e0fdf9d6f3U,
  0x140feadd06f70202U, 0xf608040b0602fbfaU, 0x2ed0d1efc130909U, 0x4ebff0301f9fbf5U,
  0xef0303e5fb0307feU, 0xee06f7cae6f907f2U, 0xf80e1515f4f50504U, 0x3e7f2dc02fc0107U,
  0xae0efec02ddde0aU, 0x5dfebf2f7060009U, 0xfafc0dfbf7020a04U, 0x1604e1e40800f8eaU,
  0x60e00e901f7f804U, 0xffe50214fc07fcf9U, 0xf50a0016fc1afa16U, 0xf601ff10fb050800U,
  0xe107fcf6fff9fcf9U, 0xdf09fcfeed0404f4U, 0xf6150afff508fefeU, 0xfeaf0e6fe0903ffU,
  0x2e5c90c01ebd9feU, 0xfbe2e9fcfcf6f8ffU, 0xfae004f4f800fbfbU, 0x700dceafaf4fafbU,
  0xc0209f801fe00f9U, 0xef0c0902fbfefff9U, 0xfee4f21303140002U, 0xf0ef09fcfbfcf9fbU,
  0xe50c0b0402f3fffbU, 0x4f90e12f700fbf5U, 0x70b05fafd080608U, 0xffeacc1bfffdf3fcU,
  0xf8fae90101eee80bU, 0x6ebf7f403f703f9U, 0xf8e7ecf7f806f6f4U, 0xfb0ce0d2f30008fbU,
  0xd1101e80503fcfaU, 0xd1a040a03f706f9U, 0xc000a0113170013U, 0xfff002ff0106fbfdU,
  0x6fb090401f5f603U, 0xeb0407fef40609d1U, 0xf10d06f60405fcfcU, 0x803e2f906f6070aU,
  0xfb00ed0308ef00f2U, 0xbffeb04fc0700fcU, 0xf7ecf80afe05fb08U, 0xaf008ee05f01af9U,
  0xfece8d8fcff00f6U, 0xe00bf40c07fef306U, 0x2eff600eeff0904U, 0xfee5f5060afefafdU,
  0x160104ddf9fc020aU, 0x6f7f7edea0b02f3U, 0x60d110602fcf907U, 0x111fdee020bf606U,
  0x70cf3de09d7e9f9U, 0x2f0f4fff2f9faU, 0x102f7effff800f4U, 0x705f501ed03ffU,
  0xf00e6e104f90b08U, 0x18f7f715fa07f2f7U, 0x9f9fc04190504feU, 0x1f402fcfc080508U,
  0xfe01f7f40afafff6U, 0x1fef2d7eefafa0fU, 0xf70d0cde08f5fe07U, 0xfe0a1ad9fef8fd02U,
  0xfd170ad7f9dee3edU, 0x60c17e1f405f8ffU, 0x1030411fc020308U, 0x3f704fcf6f4ec03U,
  0x7f81accf80308feU, 0xfa1e010bf8fef200U, 0xeeed0d0c0f120503U, 0x8e5070b06fff8f7U,
  0xfa0bc70304fa02U, 0xfaf0eeeaf7fd09d5U, 0xf40cfeee0502fd08U, 0xfa02eb190203f602U,
  0xff01f6f006d1d10aU, 0xfd0214fcfd0503f9U, 0xfe121505020204U, 0xf8f5eae4fb06fa0dU,
  0xef5dcf006fafdffU, 0x6ed0afd03f308f9U, 0xffd70f1117fc090cU, 0xfffb0d000402fe05U,
  0x13f80c1a05f2070aU, 0xe103f8ea060b0303U, 0xe907fae90304f509U, 0xf3f60417f5f9fd09U,
  0x5f7f8ecf9e1e5fcU, 0x1effb08f5f402ffU, 0x81cc6fdf8fcfff5U, 0xf8e7f4090afcfcU,
  0xfcf212f3f60504ffU, 0xfb100506f90301U, 0xfcebff011d13fbfeU, 0xf1fcf5020606fbffU,
  0xffd13ce0803fd09U, 0xe6fcf6eaf20603efU, 0xf304f71df3000bfbU, 0x2fa0f0700fc0208U,
  0x8f2d1e7f6ddd10bU, 0x4f9ec1206f90304U, 0xff0a20fff5fb06f6U, 0x8ebd8fcf90ae60eU,
  0xf9f5e0020af50b08U, 0xfae9080dfefe06f7U, 0xfadf070bee0a04feU, 0x1307040700f90507U,
  0xfc0b0a16f7fffd04U, 0xe306f0e912fd01f9U, 0xfb06f7f7010af803U, 0x7e107020203fdf6U,
  0xfc05dee9f9f2ee10U, 0xff02fb17f902faf6U, 0xc0317e70303fefcU, 0xf0efdaf5081ffde4U,
  0xfcf7ef10fe00f7fcU, 0x40c09040203f405U, 0xfbee120704060b09U, 0xd0e0b04faf6fdfdU,
  0xb80f04cd00f9f8fcU, 0xf4fe08ddf502fce0U, 0xf00fff1fefcf508U, 0xfec7da01fa08fff6U,
  0x11fde2f1fdde04f2U, 0x51af9fefcf6fc05U, 0x7ec1bfbf5f5fdfcU, 0xf9eed7ee03182204U,
  0xfef702fdfe080af8U, 0xf1bf00ff7f6f600U, 0xf5040a03111100f7U, 0xeff80d07010308fcU,
  0xea1afb08030303fcU, 0xf10ae7dfec0a0efaU, 0xff7f8faf6f8050bU, 0xdd1d2f805fe0309U,
  0xfeefedfd05c2c007U, 0x72810f908fc0405U, 0x708ed02f9f70203U, 0xf2f9d90103062403U,
  0xf3fbeb11f8fb04feU, 0xf905f825010708f8U, 0xf5f135f4f4ec12fcU, 0xfd0e15ddfafd03f9U,
  0x10fefe1207faf6f6U, 0xc512ff9ecb0e07b1U, 0x2040cfffffe0206U, 0x21dfcf5fc05f5f6U,
  0x25c4efef00d8e4dfU, 0x8e109060206fbfdU, 0x1f4f1f4fbfe00f9U, 0x3e00dda04f704ddU,
  0x8ff1df5fcf703f5U, 0xf8e3000200f80504U, 0xa221f1a01f1060bU, 0x2fd0f03fa0a0405U,
  0xe6f9031d0602fbf9U, 0xbd18fccfcf0e0a04U, 0xfc16f7e7fafa0706U, 0xa0afc1102fef6f7U,
  0x17a7bb140bc7c506U, 0x9cbf0f6faf1f80cU, 0xf3fe12030200faf3U, 0x16f2dee600f5d7e1U,
  0x12220feefd000708U, 0x150c10fffcf200f8U, 0xfa020e1607101014U, 0xfffd0910f9f8fa06U,
  0xf0f80307f5070402U, 0xc60709e0c70efefbU, 0x30701cff9f50802U, 0x1eadfe2010603faU,
  0x1bc8b4f911dcbff3U, 0x11d4f4fff5f3fd0bU, 0xfc06fb0600fff9fbU, 0x14fbf3d602fff1dcU,
  0xd120df804fe0108U, 0xee01060f01030402U, 0xfe60717e5090006U, 0x11040a0006fd0607U,
  0xed0afae7f807fb01U, 0xdd1400e1db0f00f0U, 0xfd150627f5f8f601U, 0xbe701ce07f8f503U,
  0xce6d4f1fddbdaf3U, 0xcdcec0af904fc09U, 0x7f021e70802f8f9U, 0x1bfbd5d313f1fee2U,
  0x717fc0a04fc0600U, 0xfbfb140903f803f9U, 0xf2080f13fe1bfd0eU, 0xc03040af9090206U,
  0xe906070900060307U, 0xe807fb11cf0706f0U, 0x80414ecf6fe08fbU, 0x9e5e0fe06fafa03U,
  0xbf9bb00ffe2da13U, 0x9f1f609f6f5f505U, 0xfbe7f4fcf60afa01U, 0x1feeae20ef0f4feU,
  0xe1e22fe00f9fdffU, 0xfa05070206fbfdf5U, 0xfee40416011c0814U, 0xf2e9ff0a06fbfffbU,
  0xe40908df04fc01f6U, 0xfafdf70703080410U, 0xe10510edf606fbfbU, 0x8e3d7ff07fef3feU,
  0xf14f9ff01e4eb0cU, 0xe7e6fbf4f30602U, 0xaf1e4fcfdfffdf9U, 0xcf9eccd0d00fff6U,
  0xcf905dd060007ffU, 0x17090b0cfe00f2fbU, 0x3eff5f90a0c0a0dU, 0xf2f3fbfcfff5f5f9U,
  0x2f811e308f30807U, 0xe901f707ecffff02U, 0xea0dfde202f50103U, 0x8dffeff04faf6U,
  0x1fbed0804e0f7ebU, 0xcf2e5fb08f7f506U, 0x5ecf8fe0701fafdU, 0xff30ef2fbf41ce7U,
  0xaedd7ec02fe0bf8U, 0xfbf9f80efd00f4feU, 0xe9d8f900fa020206U, 0xe7e4f60706fd0508U,
  0xe0401fdf601fb07U, 0xf2f6f801e60608fbU, 0xf90efef5f4f90105U, 0x20ff5ecfcf800faU,
  0xa04e2f3fee6c8eeU, 0x8f7eafb0107fffeU, 0xfaf7f1def900f8fcU, 0xaee06ef04f7fce9U,
  0x8eddcf6fb08f606U, 0xb00fe15f7f408faU, 0xf3e400fb0410fc0bU, 0xffebfbfa030101faU,
  0x70a080900ff0705U, 0xfaf8e9f7e107120eU, 0xf110f7ecf3090affU, 0x30807f208fefcfbU,
  0x3fdf1f908e5e4faU, 0xe03f9e708fd0401U, 0xf8ed0cf9ff0003ffU, 0xf9dffffdfff1d405U,
  0x9f50bf0fdff09fdU, 0xf4040f03f6fbfe03U, 0xedf0fb0f03130002U, 0x14ef070a0202f4f8U,
  0xf50505d603fffd03U, 0x1fbe915f109fcf1U, 0xdf04fc2a03fb0302U, 0x101f217f30207fdU,
  0x9fcf7fb0bcdd100U, 0x7ecf713f906f90bU, 0xfcfd0ff0f4fffbf5U, 0xf3eaf5f5fcfc0bf2U,
  0xfefbf70503fb09faU, 0x4da130e04f7fefeU, 0xf0d5081504ed0405U, 0xfdfc080ffd070400U,
  0xa141d1a0701050aU, 0xfdf6f3fafc1102f5U, 0xfe0bffedf30300fdU, 0x14f6031102030107U,
  0xfff3e8f80bd2e808U, 0x2fdf3eef4f5fffdU, 0x7f9c0e905ff01f7U, 0xf500eaf80205f902U,
  0xdfd19f7f90a0a03U, 0xf2ef0d04f7f9f907U, 0xfff0fe0c0d08fd06U, 0xfd00030305f90005U,
  0xe71108c6fe05f503U, 0xec05fa07ea070ae5U, 0xf7fdf3fbfb01fc0bU, 0xeef09050208fdfcU,
  0xfcf7f4ee0ee4d900U, 0x103ee02f702fdfcU, 0x12e403fc05fc0901U, 0xf9fbe70114fcf70bU,
  0x2feed03fdf9fe00U, 0xf8e9161000fd0601U, 0xfceb0604edf40f06U, 0xfb12fc09f702fc01U,
  0xe310ff030af3fa06U, 0xed03f8ecfe0407edU, 0x4f5fff7ff0203faU, 0xed5f8ed04fbf401U,
  0xfc03daee09cfedf4U, 0xf00bf30c05fdf5f6U, 0xbdfece1fe0b0a00U, 0xf2e1e1fd0b0df9deU,
  0xf0e4dd2bfd040a07U, 0x613040109f701f9U, 0xffe7090514ff0cfdU, 0x100f06fa09fc07f9U,
  0xb51e09d904f8f909U, 0x5f901eed31307dfU, 0x22eef7ed06030107U, 0x7b6c61405f7f70aU,
  0xc00ddecfddafb0eU, 0x62706df09f206faU, 0x14e4f1fe0301ff01U, 0xf1dfdaf1011103f9U,
  0xf9ff010cfb05ff01U, 0xb1b03080007fff4U, 0xfe020d011212fdf4U, 0xf4f40701f8fff7ffU,
  0xe60f09dd04f6f801U, 0xf2ff09f0d9051210U, 0xdfcfff6f503f8f6U, 0x5c6c002040bf306U,
  0x81309070ac0cafbU, 0xff3520f90403f3fcU, 0x13ffd903ff00fbf5U, 0xe6f2d4f509010a11U,
  0xf4f7f8000100fefcU, 0x801f817f7f303f8U, 0xf3ef30d30cfd11e1U, 0xf1ef20e803060005U,
  0x18f5ff3302f3fb01U, 0xcf0df8baeb0216d9U, 0xec0206c102fc0000U, 0x12919fcf508f6fbU,
  0x1dd4e310fce8eef3U, 0x18e7eff3f801f8f6U, 0xfb0b050701f601f7U, 0xbd5efef0bf412eaU,
  0xfef7f4ecfbf601fbU, 0x2eef7fe0101fd02U, 0xf70a220a0bed07ffU, 0xe5f00b09f8fd0404U,
  0xff507400bfa00feU, 0xce1807ead70f1408U, 0xe10bf9f6020803f7U, 0x2211410f9fc07fdU,
  0x1fc1c51201cbd6ffU, 0x10b7cfeffd07fc0bU, 0xf10b2af507f604fdU, 0x15fbd4d80af400e1U,
  0x1107e1edf80707f5U, 0xf2f712f3f5f502fbU, 0xddd2129f7ef0efdU, 0xe61311090201f9f8U,
  0xfef60a200204f604U, 0xe30c0110c3140bf7U, 0xe80f00f9f9f503f5U, 0xf40efcf407f803f8U,
  0x16d4c31805e0caf2U, 0x10bcde1cf4000703U, 0xf71505f500fb0204U, 0x1601d5e110f0f6ccU,
  0x16fdee060408f904U, 0x2f90d0707f70103U, 0x2e81a0ee4fc0f0eU, 0xfd0f0e060b0afcf5U,
  0x107ff000403f4faU, 0xde17fb1dcd1706f0U, 0x10afa1c02f5f9ffU, 0xcf5fad905fe01ffU,
  0xfefd0040dccd0f3U, 0x6d1d43104f4f4f5U, 0x1f522fbfdfaf602U, 0x13fb07d218f1e8daU,
  0x170bd90000010106U, 0xff61204000101fbU, 0xf8ef0a18000d040aU, 0xf3f7070d05030406U,
  0xf50809fdfcf8010aU, 0xd80efd04c00c0ff8U, 0x5090508f5fdf6feU, 0x4efdf0800010000U,
  0x7edc11109d3bd12U, 0x9e706f8f3fd0107U, 0xaf802fff701f8f7U, 0x9edfcd10afafff6U,
  0xf042ef8fdfd0b07U, 0x19ff0704f5f60606U, 0xd4f10a11e508060bU, 0xdfe0080a03fbf9feU,
  0xef0a01f3000502fcU, 0xf0f9fc04de09f815U, 0xe9020bda07f5f8fcU, 0xf9e3ef1402070605U,
  0xc0fe20614e4d809U, 0x3e5d3f802fd0909U, 0xfdf70511fdf6f9fdU, 0x9e8f7ef1104e5e5U,
  0x12f921dbfdfafafaU, 0x12fd000a01fd08fcU, 0xbea09f6f8f1ff11U, 0xffe00f0702050906U,
  0x10210f6f505fbfcU, 0xfbf90319de12fedfU, 0xcd090ef2f6f604f9U, 0x11f5ec160700fa01U,
  0xfc0ff30413eef0fbU, 0xfee7ebfcf700faffU, 0x3f0120d0800fb04U, 0x9fafbd604ee26ecU,
  0xbd9d8eb06fc0806U, 0xf0504fff908f3f9U, 0xbd90301f2ed1305U, 0xdfe70ffff7fb04fdU,
  0x18000b050afcfa06U, 0xdf010208dc1413f9U, 0xd70c00fa0101fe00U, 0x218f105f60b08feU,
  0x2f5ea060ae3c1fbU, 0xe8ef0505010604U, 0x2f80cd501f80402U, 0x4ef130a13e1f4e0U,
  0x13ebe1f3090bf608U, 0x160007190803f9f6U, 0xfefa1001ee04080cU, 0xf3effbf9f608fdf7U,
  0x80c0fef0502fcfeU, 0xe0f9ec0ad60f04f7U, 0xda0707f50906f7fbU, 0x21603f705ff04faU,
  0xafbe30307eaea02U, 0xfde5d5f9fefefa01U, 0x5def6f1f3f9f807U, 0xfde5fd0b16e9e2eeU,
  0x4dbfc05f5080b04U, 0x4f103eef6fcf301U, 0xe5f80202eb150012U, 0x403fbff0601f702U,
  0xf60e0d030507faf7U, 0xfbf7f330dc0c10efU, 0xe608f51802fd040bU, 0x606e720ff0001fbU,
  0xfc0ffb0313cce1feU, 0xce6de0cfe03fcfcU, 0xcfbfec9f5ff08ffU, 0x100e4140e08ead0U,
  0x4eff104050af707U, 0x1cbe0b0b0406f606U, 0xdfe6f908fcedff0eU, 0xf1e6fb0503f8ff07U,
  0xfe1518140a03f408U, 0xf03f700cb0afee7U, 0x2fdfac7fa01fd02U, 0x4fe05f40703fd00U,
  0xfffae4fa0fcdcaf8U, 0xafafadffefa01faU, 0x5f4e0e5f60000faU, 0xf8fdf7f213f5f3fdU,
  0xf5eb080606fbfffbU, 0xebd81cfbfd04f9fdU, 0xe6ef0206f60a0b0bU, 0xf90ced01000206ffU,
  0xbe1f0fdcfcf2f8f8U, 0xebf8f2f2c11603faU, 0xf0f0fee9f3fbfb09U, 0x10e5f2eafbfaf203U,
  0x307e8f8ffd2c603U, 0xf50ef7ddf4fcf507U, 0x18d6fef2f809fefeU, 0xf5faf9fa0ee3daf5U,
  0xf4f2e70e09f9fffeU, 0xf0e0100a03020607U, 0xd6f50301e8ee0708U, 0xec21ebff03000807U,
  0xd70ff7cd04fef704U, 0xeff70303d4120be3U, 0x5f8fddff7f8f705U, 0xcd0d9f8010bf903U,
  0xf809d7eeffc1dddcU, 0xf717edf10002f8f7U, 0x17d3d0e4f4fbfdfeU, 0xf3d0bd1408f8dfd2U,
  0xf5eed420f80305f4U, 0x3fc100dfd06fef8U, 0xed04f506080f02U, 0xe090402fef702f9U,
  0xbe14fce90704f9f5U, 0xdf704fbbc09f6efU, 0x1eee00effbf70305U, 0xac1c12a06faf7fcU,
  0xf52207eb02c1d70bU, 0x33325ef04f6f907U, 0xee6cd01f4fff8fcU, 0xeedecdfc11f3e1ffU,
  0xeeefda0300fff708U, 0x50a03130704f701U, 0x2eb1b02f712f2fcU, 0xee060001f8f9fdf5U,
  0xd9130ddd05f705f6U, 0xf7ff19f3e104fe03U, 0x24f6f60808f90b07U, 0xcb4c400000608f7U,
  0x2270b07febcbd00U, 0xf53727f603f2fa04U, 0x4eccbff080bfbfeU, 0xe4f5cbfa09e1d607U,
  0xe1eee608f6f700ffU, 0x614f002f605fc00U, 0xeb0533f413f903f3U, 0xf0ed110109f60109U,
  0x36f4fc4b0202fafdU, 0xd60800e2fb030f05U, 0xd110fc86fcf6f600U, 0xf12f1c02040b040aU,
  0x1ae9f826fbeb01fbU, 0xcdceacc07f7f6faU, 0xf5171d11fdf805f9U, 0x2e2f2f2020c2009U,
  0x8dbfad8fa0905fdU, 0xf4f401fb0107fc01U, 0xef071a12fee614feU, 0xdbe51e02fd00f700U,
  0x35f2ff3efff90300U, 0xea1705f6e8fc1ef1U, 0xcd11f7d4f503fc01U, 0xe9401902f30af609U,
  0x1cd3ca2b08e7d6f6U, 0xfcec8fc02f4f2fbU, 0xeb1747fdfdfa0904U, 0x20f5d3df0ef919efU,
  0x1de6b7def9f5f5faU, 0xe7f503080208f8f5U, 0xdd41e0c01e118feU, 0xd20306f9050701ffU,
  0x1ffd07fa04f7fcf8U, 0xee1a0b38d50e0fe1U, 0xce1dee15fb07fbfbU, 0xf420000ffbf701f6U,
  0x16efcd19fee2dcedU, 0x1bcad91ffdfdfc05U, 0xf11d2a21f7fbf9f9U, 0x1f15efd30e01fee3U,
  0x15e6adcef9090902U, 0x1ceafffcfe08f706U, 0xeae41c1dd9eb01feU, 0xd9f5140d07f80706U,
  0x2007ff170af6fbf6U, 0xe3181b1ed01b07e4U, 0xe111090b02fd0306U, 0xf908fef900f7f4f5U,
  0x1001cb110ad3c7edU, 0xcd0de1efaf9fa02U, 0xfd140325f8f90806U, 0x16061cdf0deff5d1U,
  0xbf3badf04fc06f4U, 0xbf8f90d0004f405U, 0xe2dc1205f8060f0dU, 0xcfdb130f09080106U,
  0x100b0ef7fbfafdf9U, 0xdf07fc17d2130bedU, 0xde12020ff80604f5U, 0xbfbf9080501000bU,
  0xe02cbf205e1b6e8U, 0x1cecfceffbfff608U, 0x2222217f90bfbf6U, 0x9ed12d415f3f4d4U,
  0x16da02ddfa08fc09U, 0x270efd0302fdfdf7U, 0xe302091cdcfd0e0bU, 0xd4db1103f6f70300U,
  0xf6ff11e9f603f9f5U, 0xff0ef2f6d61203f4U, 0xe313f90504020708U, 0x3faff11f708f900U,
  0xf08d7140befc30eU, 0x17ebdfeefdf40803U, 0xfa1115f409f904U, 0x11f519e50deedfe0U,
  0x17f61cebfe02fe06U, 0xf700030afdf6fa01U, 0xfee50efbede10c06U, 0xe3c5090cf801f701U,
  0x11fe1300f5fef501U, 0x505fc06d81002d7U, 0xe6110005f5fcff06U, 0x9fff00806f707f6U,
  0x1111f408fceaedf4U, 0x1ae6dedcfbfbfffaU, 0x1000c080502f706U, 0xdf1f0e60fe710e4U,
  0x2ebd1d00bfcfe07U, 0x1eeb0d1007f602f8U, 0x13dd150be6df040fU, 0xe9e41004060405fdU,
  0xd0112e306040608U, 0xf804fc18d31005e2U, 0xd20404f5ff04f5ffU, 0xe0b0013f9f800fdU,
  0xcfdee040fdacbf5U, 0x5e3d1d4f7f7fd02U, 0x3e516fefef803faU, 0xbf303ed1be1ead9U,
  0x13dcc9daf9fb0204U, 0xf0f8f701f9040102U, 0xf8f713feed060b08U, 0xf60600f608050702U,
  0xeb07f9f4fa0206ffU, 0xed01090fd7190df2U, 0xd80809fd0404f608U, 0x510ec1cf4fbf505U,
  0x70cde1205e3d4f1U, 0xcecd5fc000507faU, 0x17dade1cf7fd0bfcU, 0x5f1040120d3c5fbU,
  0xefebeff80907faU, 0xeff0fffafdf80008U, 0xe6f80609dff111fdU, 0xb170ef906fdfd07U,
  0x5110708f7000400U, 0x8f7062dd61007ebU, 0xfc000a1406050308U, 0x904e91a03f80505U,
  0x613050212cddcf1U, 0x2f7efebfbf60103U, 0xdf708e0060805f8U, 0xf7f2fef00ceedce7U,
  0xfa03eef9f7fd0405U, 0x7a60708f8f906f6U, 0xe2da020bfae9fbfcU, 0xf4f1fe1501f4fe01U,
  0xfb1108f70304fe04U, 0x1f6f1f8c214fadeU, 0xff0af5cbf3060108U, 0xa0df5fef5040004U,
  0x131206e5fdd1d303U, 0xef4fddcfff7fe02U, 0x15e9fef1f7fd02f2U, 0xfcea18e118fef80bU,
  0x2eb14f1fc030900U, 0xe8d310f808fff805U, 0xc7edf7ffe4f000fcU, 0xfb0ffc07ff0300f9U,
  0xc41a10d1fd02ff03U, 0xea02f3e8af1a0bf1U, 0x5f604f4fffc0805U, 0xfffbe0f0fcf6f406U,
  0x1107e5f109cfc00bU, 0xdff06d5f7f2fc04U, 0x18c6f5f8f50705fdU, 0xf8f0e9ed17f0d6faU,
  0xfbfedd03fef705f5U, 0xd5df170208f7fcf4U, 0xfe00fffbccce0b0fU, 0x2916fbfefdfdf9f5U,
  0xcd1efcc0fd00f402U, 0x10f3f2f2c70f00e7U, 0x7ecede803f5f705U, 0x6debafef6f7f3f7U,
  0x10be50011c7d5f7U, 0x50c10cc01f909f9U, 0x20c8c1f3f600fcf9U, 0xe8f8a4f80feee6d2U,
  0xf7fec607f9fc0908U, 0xf7f80bf70607fbfeU, 0x5ef02000a000efeU, 0xff0df005f70704f4U,
  0xc61bf60dfff9f8fcU, 0x1efc1b0ec31609fcU, 0x16ea06bf0708f8fcU, 0xbc1c9ebf5f8fe07U,
  0xf62bfef502bcd1feU, 0xfd240ce8fffdf4f7U, 0x14cab5fdf70007f5U, 0xeb04d7fd1bdbceffU,
  0xe7fde509fb0702f4U, 0xdf0af70d06060607U, 0xff31afce31cfb06U, 0xedf30cf2f6060506U,
  0xd80f15dcfcf300f7U, 0x18f80001d51cfdfeU, 0x2ce5e51d0906feffU, 0x1ebfd5f5fbfaf4fdU,
  0x429150508b5c106U, 0xf7301d04fc0407feU, 0x19c9e609ff090a03U, 0xf3ece30205e3bf05U,
  0xdfe9db04040005fbU, 0xfb1ce30a06f9faffU, 0xe80a1e0106040011U, 0xfcbe1ed4050a01f4U,
  0x38e5f43ffb04fb00U, 0xee07feec03fc0602U, 0xe31402c4ff0509ffU, 0xfe2c140a05f805feU,
  0x9f4ee300701fefcU, 0xaeef6d0f80205feU, 0xe2210e0afbfbfafbU, 0x13e609f108083314U,
  0x16d712e60506f8f3U, 0xcf4ec0905fd06f9U, 0xdd0c1b0609f01503U, 0xeae816f403fffdf4U,
  0x21e20d18fe0402f8U, 0xf30a0e17e30406e7U, 0xd70f03fc070603faU, 0xf73523f107f8f305U,
  0x22ebe631fcfde2f3U, 0x18d0c20df70601fbU, 0xe41a3e18f9fbf9faU, 0x20f5e4e9080d2407U,
  0x12d9bbe001080c07U, 0xf61affeef701f4fcU, 0xfedb21190ef10ffbU, 0x14e51504fcf501feU,
  0x1df208f9fbfef9f9U, 0xa12fd44e90d0d03U, 0xf0160622ff0a0bfbU, 0xfc1c110e01fc02ffU,
  0x1d05f00a0ae4e0fdU, 0x11dadaf505fdf3fcU, 0x1152521f60707f3U, 0x212405d016ffeef6U,
  0x1de4b9d8fa010107U, 0x6fcf8010306f901U, 0x6e4200afee011f3U, 0xfad21e0e0102f700U,
  0x2605f70efc02f20aU, 0xfb121d06d01a0bd9U, 0xd81813f1fef5f7faU, 0x190711f702f900U,
  0xffbf40502dcd7e7U, 0x14e4d91401f5fa05U, 0xa15fa28fb09f6fcU, 0x241130c422f1fcdfU,
  0x12ef09c103fa0907U, 0xea0d0102fbf9f503U, 0xf7d6160af3f50d00U, 0xffd40cff05fcf900U,
  0xd09fee2f6f50200U, 0xf3121231ca1c1bc4U, 0xda1a1307f9fc0609U, 0x20918f206f807fdU,
  0x1508daf9fed3b8e2U, 0x16e5e9f1f5ff0309U, 0x90b1a1002ff05fbU, 0x200414e51ee8f9ecU,
  0xae7e4d6fef9f605U, 0x1e0408fafb07f804U, 0x9021014e7f203feU, 0xf5f61a0bf6f707f6U,
  0xf9090bfcf904fef8U, 0xfc1b061de0160105U, 0xe30bfdf708fef600U, 0x3f7fd120205fe05U,
  0xc13f00206e9b7dfU, 0x11e9df0efefcf7ffU, 0x1f9172509fff8fbU, 0x1bff0fea1aecc8ecU,
  0x13f004e60706f7f4U, 0xf3f8ff030102fdf5U, 0xe5090e08ecde0301U, 0xfecb0ff4faf80905U,
  0x1410050800fe0401U, 0xa0af500db0d07ccU, 0xf40603e6fc000300U, 0xf8edf90405f7fffbU,
  0x150ff7f8fee7c6e1U, 0xaefe6c7fff9f403U, 0xaf3f4fb0300faf8U, 0x50411ed1dcbebebU,
  0xfff6d9dff808f608U, 0xfcd6030e0bfa07fbU, 0x6f509f3ebe00c09U, 0xae211edfbf4fcfcU,
  0xf2060ddcf8f90109U, 0xc0cf923c80a12ebU, 0xd00711fc000906feU, 0xfd00faf10202f606U,
  0x60805fe09e0d7faU, 0xfeccbea04fefd04U, 0xdd80d08fdfaff01U, 0x30110dd1dddd4e0U,
  0xfceaebf5f9f90901U, 0xd60605070100faffU, 0x6f91403ef0afe07U, 0x1050bf20100f801U,
  0xed0ff711fc01fff9U, 0x7090b21c917fb09U, 0xec040bfaf7f9fc02U, 0xbfbe31cfc02ff06U,
  0xaff0effffdbb9e9U, 0xfefcc0ef6f7fa03U, 0x12e4cc1af9060006U, 0x50f04ef19d6d1faU,
  0x8f6e80005f60103U, 0xdceffe0f0bf5fcf5U, 0xf3e4ff1cf8e3fefeU, 0xf060d06fd0a00f7U,
  0xfafbe8e508f7f2f7U, 0x20702fbd90705eaU, 0x701020a030101f5U, 0xfefffe07f2fbfbffU,
  0x1004f3fde4d1f2U, 0x130a0ae5f9fdf301U, 0x12e408fe030100f9U, 0xbf5fde913ecdff8U,
  0x810f4f1fd02fbf7U, 0xeeb30406f6fef3fdU, 0xedd1150debda0805U, 0x1906fcfcfef90604U,
  0xf51305ed0a04070bU, 0x3fdfdf0d914fdd5U, 0xfe060bce040606f7U, 0xfefcf305f8f9f801U,
  0xfb0e0ccb0bdbc101U, 0xfc0009d302f20400U, 0x1d5ecf90105fcf5U, 0x7ee12e312ecd8f1U,
  0x5f13306050604faU, 0xdcbc00ecfcf3fc04U, 0xe615fb19dcd10f09U, 0xf21efafdfafbf8f3U,
  0xe31206ac0a05f50aU, 0xf4f4fa16d1050ff3U, 0xff04f3070700fa00U, 0x9f4d41c060a0201U,
  0x20af3e70cd6befcU, 0x602ffddfe00f4fbU, 0x19a8f2eb080bf5ffU, 0xebf3f81010ebdce8U,
  0xfbf9ee03fd0005f4U, 0xcec60dfc04f50705U, 0x21f501c7b41601U, 0x2a24e6ff05fd07fbU,
  0xe10c16e304fc0103U, 0x15ebe714c21008e8U, 0x9fce0e30201f6fdU, 0xfee9b7fbfb010109U,
  0xfbfc001d04cebbfdU, 0xf60910b7fcf4fdf9U, 0x1bb8cef4fa02ff05U, 0xf109cf0e10d1e4ceU,
  0xe8f3dc22fcf60601U, 0xfde9120202070306U, 0xeeef2f907f413f5U, 0x80ce708fefd0906U,
  0xe70dfbeafaf9fbfcU, 0x1def0e1bc016fe03U, 0xef5f6d1fdfd04ffU, 0xfddd4e4f9fdfdf9U,
  0xf815040a08cec510U, 0xf31706dcf907fafeU, 0x1ec2c4ee09000503U, 0xe30ae1001eccd2f9U,
  0xce0af11a07fafcf8U, 0xed0d0b05fff60800U, 0xffd04f6fe0ff8f4U, 0xf600f80307fa02f9U,
  0xe30e16eff7040403U, 0x14fb03ebdb0d070cU, 0x1be4df18f9f6fffbU, 0x15dbd500f80506f6U,
  0xf717090610c4ba01U, 0xe5341c09f80708fcU, 0x7d1df00f7fe06fbU, 0xe700f60efccfd511U,
  0xd7f0de100704fff5U, 0x1918e32b03fb07faU, 0xf30122f6250b051fU, 0xedb31ed6f80afaffU,
  0x2dee031208f6f504U, 0xe90b10f3ff0112f3U, 0xf30003ee07020302U, 0x100c1b080702f4f6U,
  0x160505250ff70404U, 0xf6ecfdf2f9f80707U, 0xd82b0e0608f8f9f5U, 0xde017e3ea142c0bU,
  0x17c6f2e2090303f9U, 0x1c05f2ff05fc0706U, 0xd41012010c080bf5U, 0xe3061e00fc0106fcU,
  0x19e5ff0e0a06fdfaU, 0xf913070ef1001a02U, 0xe70a09ecff05fa0aU, 0xfe201afcf2ff0308U,
  0x19f6e32c08f7fc0fU, 0xfbeccf52f8fa0500U, 0xeb1e34150808fb05U, 0x27f7eeeb02071a07U,
  0x1ee2d1f700f90b03U, 0x619fdebf9060707U, 0xe9d60a1729ed1100U, 0xbce05fb060609fbU,
  0x1f81818f7f7fd03U, 0x51e0b01fb040d29U, 0x100af320040605faU, 0xfc17ff0af3010601U,
  0x1f0b01140af1f00eU, 0x17f6e609faf506feU, 0x5052102f7f5f603U, 0x260a0ad11d12fae5U,
  0xaf3dde1fa050306U, 0xa200b0ff7f3fc01U, 0xede70606ecf5fdf2U, 0x1c70500f7f80205U,
  0xdfb0619fef2fcffU, 0x101120e11c10efU, 0xfd031531f3080bf6U, 0x8150f0b060808ffU,
  0x8faf61b03f7e4e7U, 0x7e8eb27f601f2f7U, 0x412e5f9f508fdf8U, 0x2e123fd926f300e5U,
  0xef521ee02f9f702U, 0xef0bf20501fdf9faU, 0xf1f30bfef9040503U, 0x11d40ff60203f5f6U,
  0xfa05fafbfef501f9U, 0xf1111d1fd21f08e6U, 0xeb1119f607f9fa01U, 0xf80b11f6f6faf807U,
  0x507f0fcfcf2c6e9U, 0x9ebf105fcf30402U, 0x4061bf3fdf70900U, 0x2d0122f613eefeefU,
  0x11e707ebf8f704fbU, 0xe18fe0104f6f5f3U, 0xedff0308f1d7f9f7U, 0xdfd18fbf801fb07U,
  0xf0070cf6fcf5f406U, 0xf1200131d91603f4U, 0xe30107f3fffefefaU, 0x1020904fc01f5f9U,
  0xc15f5fd08ebc1e0U, 0x15d9df18fe00f500U, 0x600150900fdfd01U, 0x250818f410f1ebe8U,
  0xfe706e6f902fffcU, 0xd8e305070807f602U, 0xff190b0ae1e8f7ffU, 0x12d309010007f502U,
  0x70c11effb070803U, 0xb09f6fcd90a0fddU, 0x20cfc05fefcfdU, 0xfffbf206fdf70303U,
  0x4090cecf8eeb9e2U, 0xcf2f8fef50505faU, 0xce801f403fcff05U, 0x31426ed1ad3daefU,
  0xfdfdebe80008f7fcU, 0xfee30be90a07f603U, 0x6f00b0a0ae4ff04U, 0x1be801effef5f600U,
  0xe50c02e5fd07f7f8U, 0xa020611ed040203U, 0xd4130dfcfff4fe04U, 0x9f6f8f7f3f6fafdU,
  0xf18041b02e9d7f2U, 0x2e4d1fef7f5f507U, 0xeca0b010afe0000U, 0xf8151dde15efc9edU,
  0xfec22f3090801ffU, 0xfefe0c090400f3U, 0x1fd0f08f8fbfb05U, 0x190f03f00509fd01U,
  0xf10df70afcfff505U, 0x9f90d0ed909fcf3U, 0xf8070a10f5f40904U, 0xaf5d809f208fbffU,
  0x1fa080701e5bc02U, 0x9e4e406f4f808ffU, 0xee3e9110afa02f6U, 0x107ee0313ecef09U,
  0x513dbff02040601U, 0x90afd05fff602U, 0x3f8fa01f4ee0208U, 0x9feff0a04f9fffdU,
  0xf9fee6e30902060aU, 0x40e0ed4f0fefc0cU, 0x50a0ee70401f5f7U, 0x1fcfde0f400fb03U,
  0x20900ed06e8e0f2U, 0x2f6fcdbf50700f6U, 0xfcd70e030209fefeU, 0xb06090303eadd00U,
  0x314f4fdf9040906U, 0xeeb2fc04fcf7f6faU, 0x4fffefcf6d90cfdU, 0x1426000bf90903f9U,
  0xd6fc00effa01f201U, 0x1910050ed80f01daU, 0xb0bf8e105f806f6U, 0xfde7f00af901f406U,
  0xfa1a26f50aded7fdU, 0x120a22d1fff8f8f6U, 0xccef3eef8fd01f8U, 0x6f6f8fc0fdefaddU,
  0xfd0f171605fc06f6U, 0xddd1fef1f8f4f505U, 0x2735f107f8ca03f2U, 0x722f40b08030700U,
  0xdd120ac8fafcf604U, 0x1708fd2cd20d1209U, 0x706eef3f8f80afaU, 0xfcfdcbeb070906f7U,
  0xf90204f50ee6d51cU, 0xf6fc08d009f2f805U, 0xdb8d7f3fdf9fffcU, 0xfd08fe170becd3daU,
  0xe615f115fe01fa03U, 0xb8c213f600f80006U, 0x2afd0bc3bf06faU, 0x191cfaf9fffbfcfeU,
  0xec0a10030602f803U, 0x23fe0107d40f0ff8U, 0x3ecf5b9f6f600fdU, 0x306da0efffbfa06U,
  0xf800fcf6fce6e009U, 0xfd0b0599fc080603U, 0x24ccc8e2fbf808f7U, 0xde20011a12deead5U,
  0xe001e02cfd0609f8U, 0x6d815f3f6040606U, 0x110cef0a11f0ff04U, 0xf519e4fb0af7f408U,
  0xf71c021503fff907U, 0x13f5f7f4d4120dfaU, 0xde4e3c7f503f9fdU, 0xd07edf4fb01f500U,
  0xf00202f60cdcd2feU, 0xf40c0dcf03fe0305U, 0x17bbf2f9020a0201U, 0xed27f8180fd9f9f4U,
  0xdc06ed1d07080af5U, 0xfc011605f9f8f702U, 0xdff801fcf70df9f9U, 0xee0df3f901fdff00U,
  0xec060cf2fbf4fb07U, 0x24f2fb0eda131704U, 0x1ef2ed240607fef7U, 0x12ebe6fcf7f80501U,
  0xfe1e13f809dbda05U, 0xe7160b05f7ff03fdU, 0xf6bcdbfaf4f907fdU, 0xea130313f2d3d009U,
  0xf00ce40c0208fd05U, 0x30bfd0c04fd07fdU, 0xf0f007030b060510U, 0x4c309eef8000301U,
  0x9ede9edfb0800fdU, 0x50b1503f8e7f9f5U, 0xf40bf70bf8fffdf9U, 0x9091202f507f207U,
  0x11010f1818050e06U, 0x503fdee08f2f8f7U, 0xc728e61503fe00f2U, 0xbf3f9dcea180405U,
  0x16d7f3f806faf504U, 0xd0bfcfe080801fcU, 0xf3072208f7171002U, 0xf01a0bfc0006f501U,
  0x9eefd08fcf30709U, 0x180ef8f604fa03U, 0xf4180be006f90404U, 0xfe130d1700fdfbfbU,
  0x805f0f601fafa0aU, 0xc01f131f80303f7U, 0xcf1e0c21fa00fafdU, 0x200cf6dff00e16fdU,
  0xcd7deeafd000906U, 0x1ffd0bf604f4fff3U, 0xf3cf0f011be410fbU, 0xd9f1150afb01fafeU,
  0xfefc17080603060bU, 0xf71407effc110d1fU, 0xfd0dfa0601090103U, 0xf7020a04fefdfa06U,
  0x15f106ef08fcf2f3U, 0xc05f5110904f708U, 0x30f03fef6f8f4U, 0x2119f6ee0f1a17fbU,
  0x507c6f4070708f7U, 0x2910fd0c00f4f3f3U, 0xe2effbf40807fa00U, 0xe7dd0309f9faf801U,
  0x4090dfc080402f8U, 0xfd18fd0ae41304e9U, 0xf606fa1e0605fc07U, 0xd140df50b04f9U,
  0x1f807200fefe6e5U, 0x8f30826f5f6ff06U, 0xb0a01ee04f80706U, 0x1e0118da19f816f4U,
  0xb0617f4fafbfaf4U, 0x518f9f9020701f9U, 0x90803f8fd11fdf6U, 0xf8d013fffb02f6ffU,
  0xf60603ed0702fb06U, 0xe61d09fde71904efU, 0xeb0ffff6fc06040bU, 0xa060005f80afc01U,
  0xfff3f5f506f9e5ebU, 0xeaf50b03f5f705U, 0x9fe14f9090903f8U, 0x15f101fb190708ffU,
  0xfce117f20b01fefaU, 0x1303fff505f6fc04U, 0xd61c09fa1fecfc06U, 0xd1710f302f500f4U,
  0xff0b0d0e0607f5f5U, 0xf4120221e6120d05U, 0xf20d06e6040a0502U, 0xf6fd1e08fffa08U,
  0xfb0df6060af8efebU, 0xbdff40e030300f7U, 0x70c1305f90604f5U, 0x10fe030215fffd08U,
  0x5e3e9eeff0b04feU, 0xffd3040803f80301U, 0xfb20040cfd02f9e9U, 0xfaed15fe08f6fefbU,
  0x30214f4f604f9f7U, 0x1b10f3f9ec080b06U, 0xf5fffef9f8010500U, 0xf4fbfb0e04fafdfbU,
  0x40e1cf903f7c009U, 0x1eff10cf7f20801U, 0x6fe07fbf6f5f704U, 0x100606fe0aeb0806U,
  0x1f5d6eef80b02f7U, 0x6e1f9f409f6f6fbU, 0x8ef0a1017e4030bU, 0x6e804f7030902f7U,
  0xeb1213c80106f9fdU, 0x1d0a022307040022U, 0xf3fe0e010503fc01U, 0x2fcf8e4040502f7U,
  0x503021bfcf701e4U, 0x3f0dd1ffdf60504U, 0x17d016f30509fa07U, 0x50717fc170af0ecU,
  0x3fa1a0403f803f5U, 0xff02fd050006f4ffU, 0xf902fcfa0e12f406U, 0xf7fefdfcf8f8f8f9U,
  0x160ce806f20300U, 0xfcfe02f3e50f07e1U, 0xea0b1311f803f8faU, 0x806f8fd060afaf7U,
  0xfefffcebf7f4edffU, 0xde8f3fdfef5ff01U, 0x6e5d2fc01fff8f3U, 0xf70000060df40c07U,
  0xbfaf301fb01fdf5U, 0x4f4f6fbf604fdf8U, 0xe012fc13ff050302U, 0x9160b0905f4feffU,
  0xebfdf3e5f8f70303U, 0x8fafae305fd0307U, 0xf5ff08ecf4fc0301U, 0xfcedf3f10306fd0aU,
  0x70b04f0f6f9f020U, 0x9f203c906fc0804U, 0xfce3fce901fbfa05U, 0xf2fef31e0301e100U,
  0xfa030603faf7f9faU, 0xeedf0ffc09f4f8f6U, 0x52709090aea1302U, 0x132f4fe0604f4f8U,
  0xdc08f7eafd08fb0aU, 0x190afd28f6fe03ffU, 0x8ffffe3f8fbf6f7U, 0xfbefe5fbff0a01f5U,
  0x51b150d03e7e714U, 0x70906ebf304f8f6U, 0xf6bb16fa06070807U, 0xfc0af11804f72ee8U,
  0xfc0eff14f9f6fdfbU, 0xf3dcfdf1f7fbf601U, 0x1b23f40cead006f3U, 0xa25fb130bfe0200U,
  0xd700fbd4fef3fbfbU, 0x1bf7f61bf4040b1cU, 0x19fefafdfcfa06faU, 0xfeedcf08f8f6fe0aU,
  0xa0b13e4fffdde24U, 0xfb001adbfa0207f9U, 0xb6cffbf70009f4U, 0xf825081f02f7fadeU,
  0xea1cf820f7fdf6f4U, 0xe1aefb02fc07ffffU, 0xfb1c0014e3cc03f1U, 0x82101fa0008fb06U,
  0xfc030c1502f3fc02U, 0x14f2fdecec000713U, 0xf7f2f4bbf50a02f5U, 0xafdea1b07fffef7U,
  0xfd0608e8f6fbdb13U, 0x40d05acfef6f701U, 0x16c7a4d9fcf500ffU, 0xe332163118f2f5d8U,
  0xdcff0828ff07fdf3U, 0x15eb0beb0afa0405U, 0xfc17ea0522f80cf8U, 0xf11bebf8faf6fb08U,
  0xf4051512f7fcfff7U, 0x1dfb03fcf10d05fcU, 0xfef8ebd803050306U, 0x1a0bfbfa01fcf405U,
  0xf90411f413f8ecdaU, 0xfc0c05cf06060702U, 0x1bcf02f9f8fb07f5U, 0xea29f21202da1e06U,
  0xd505e217fcfb0bfeU, 0xef21500f402fdf3U, 0xd4fb02100513fff3U, 0xcd0ff3fdf8f507ffU,
  0xf0fcfcf302f9fe04U, 0x16eb051bed040dfcU, 0x10f5f4f7fdfc01f7U, 0xfefef20305040402U,
  0xf80f11fd07e5defcU, 0xf00c1ff6fb07f806U, 0xfbc7d1fd0008fe01U, 0xf2150714e8e1d105U,
  0xf2f4e309fffffdfbU, 0x712f2f4f502fff8U, 0xe8e610f303140401U, 0xefd609130702f905U,
  0x3ebeaeeff0707faU, 0xfffd08fe06f2fb09U, 0xfef8fd12fe0a08ffU, 0x9f5fa0508060805U,
  0x40c01050d010a12U, 0x50a10ef05f6f7f6U, 0xd110e01dfaff08ffU, 0xeefef2e302ee05U,
  0x18df0df1f8f8f807U, 0x924fffdfa0207fcU, 0xd7f41bf4f51703efU, 0xfdff100105fefbf9U,
  0xfaf4f20c09fc02f8U, 0xf1040ae307fdfd1aU, 0xfe080cfff4fa02faU, 0xfef6f917f30002faU,
  0xf107fbf0f2fe030dU, 0x7f3fae601f8fef6U, 0xd601081efdf90508U, 0x19fce0e5fc100bfaU,
  0xcd3e8e505070afdU, 0x34f601fd04f40104U, 0xdcd05011bef1203U, 0xebe70c1104f60907U,
  0x1fc1805fffaf6f9U, 0xec10fc02f004fc0eU, 0xfe0c0b120709f9f6U, 0xff07fbf702060708U,
  0x2f6f9e606fcf104U, 0xbfafcf5fef3f5feU, 0xe809f836f90807f8U, 0x11f8f5fbff071114U,
  0x7eedcdd00fef909U, 0x2e1305ffff08fef6U, 0xdafd0602261d09f5U, 0xd8d7010b0402faf8U,
  0x60e030ffe0003f8U, 0xe9100b07f210f20eU, 0xfc00f7ec00010bf9U, 0xf1160ee9f202050aU,
  0xbecfb060802f105U, 0x1ae7ff1bfe07030aU, 0x6f9fb0cff02fdf9U, 0xef707f1ff050c0bU,
  0xf9fd03e505fffff4U, 0x1f1ff5fb05fefdffU, 0x11301fcf21ef406U, 0xe8fa13f8fa08fe04U,
  0xf50f09f808f4fcfeU, 0xf312fbecf302ed09U, 0xef10f5e7fbfdfe02U, 0xfefc0403ff000308U,
  0xfaf9fefaf8f61dU, 0x11e1f51ef701f805U, 0x7fb1a1400fb00feU, 0x8f5fc0204030b1cU,
  0xededb06f6fbf508U, 0xfb12f6f80304fbf9U, 0xe125fd020af1fa01U, 0x41813fc03f6fcf4U,
  0xf3010e21faf806feU, 0x10ed11ff0eff1fU, 0xfcfc05d1f901faf6U, 0x1fcf52cf3060507U,
  0x13f9f1f8f1f9eb0bU, 0x11f1fefcfe00fdfeU, 0xfdf5010d02fcf7f9U, 0x3ff0dfe06ff0214U,
  0xc02e1e70bf70a06U, 0xf9d6000ffefefb01U, 0xd512fa02de09fffaU, 0xfcf603fc090509fcU,
  0xf60607e100f2f403U, 0x15faf9f7f008fe17U, 0xfe0c0d1efaff00f8U, 0x904dbfffbf3f9U,
  0x1f60c13ff0cdf0cU, 0x1ec0d0904fef5fdU, 0x7f52bedfd0808fcU, 0x61015fcf90e1df1U,
  0x102edfd01f7f6ffU, 0xe7dc0c07fdf6f904U, 0xf7ee061409fa0424U, 0x13010ae70003f905U,
  0xe60a06c4fef40808U, 0x807f2fdfe0aee10U, 0xebfd0a0afe02fffeU, 0xfa0406ddfb01faffU,
  0xfc00f2f7feff0df3U, 0x5fdd406fef6fbffU, 0x8e80ff0f807faf8U, 0xfa101012070c02f7U,
  0xdec030ef6f9f6feU, 0x1f60903fff8f401U, 0x14f505f8031401fcU, 0xf90101070b08fd07U,
  0xf0070fd70004fa09U, 0xf5fdf8c6f709eefaU, 0x1008060af7fa08fcU, 0xbf1fef9fa08f407U,
  0x90006d904f5ef0dU, 0xaf1f706fcfd08fdU, 0x6e7ceef0907f907U, 0x4060811fc160912U,
  0xfb08f90705fff705U, 0x1de8fbf4f505f804U, 0xdb3ef6061b090d08U, 0x190002f3fdfb01fbU,
  0xe1010b07f6f8fcffU, 0xfdff01e20102040bU, 0xf4f7faedfcf6fe02U, 0xef4f40104f7f703U,
  0xfc00070cfef7f81fU, 0xf504ffcefb03fffcU, 0xfed7f2f407f8f9f3U, 0xf903ee15f40cfdfaU,
  0xfb040b1df8fcfc03U, 0xe9ea03fa05f9fefdU, 0xa3b060cfcf21209U, 0xff38f4fdf7f6fff9U,
  0xdffb08da0003fefeU, 0x22f2fd25e5fe0af9U, 0xf6faf8f6fa020302U, 0xf9f9d905020a01fdU,
  0xf51c150304eefa02U, 0xf806f6eff501fdf7U, 0xfdb90cff010100feU, 0xf624f70df70221eaU,
  0xf5f9f41f030901f4U, 0xedfc03ecf705f7f4U, 0x308fe01ccf7fbfaU, 0x6180812fe0af7f4U,
  0xec04fdc806060801U, 0x10f8f5fce4f9e90aU, 0xffbf5fb080409fbU, 0x1edc4fdfb0a06ffU,
  0xb1621e80fe7d71fU, 0xfc0014edfa0303fcU, 0x6c1d203fffdfcf3U, 0xf229050d0004f904U,
  0xf210ec1104ff05f9U, 0xf3d2fc08fdfc02f7U, 0xed19f516fadcfbebU, 0xf41503110b0506fbU,
  0xfaf2fc14f9f902faU, 0x9f607d6ecfcff14U, 0xee00f7c4fe0afbfbU, 0x302f119f704f7faU,
  0xf8040fe700efdb11U, 0xff11c0f8f905f9U, 0x8dda8ef07f60203U, 0xea312419fdf7f9e6U,
  0xf4052724fbfa0006U, 0x1fedf8f7fbf20801U, 0x711eb0b22e903fdU, 0xf8190202f9fafef6U,
  0x8fe180600fffbf5U, 0x8f20c07ed000dffU, 0xbfff9d5f6ff04f6U, 0x4170107fffb020aU,
  0x100efdef0efad8U, 0x6040edbf3f90802U, 0x15db08faf9f6f907U, 0xf91bf619fb031e05U,
  0xe80ae916fb0100f9U, 0x25f90cf2f405f9fdU, 0xf90d02fc0a01fcebU, 0xd600f807f5f90305U,
  0x6f1ffd9f604f7faU, 0x6e9fe25f3f80b06U, 0x8f3f915fd02fcfbU, 0x601f2f9070bfb03U,
  0xf40709fef704e809U, 0xff0b08ff08f3f6f6U, 0xf7cedbfefbfdf6feU, 0xf0191c09f4f1e202U,
  0xfaf2eb0e06fd04faU, 0x600f9fb05f4f404U, 0xefe3fe0cff12fd05U, 0x1ce070aff0af4ffU,
  0xaf5fa01fc040400U, 0x9f9000211ebf702U, 0xff0bffe2f304fcfdU, 0x9f90408f70402f8U,
  0x7fe03f20c001801U, 0x20df8fb00fa080bU, 0xe314e520f6fefffaU, 0x7f60ff6ec06d3ffU,
  0x9d81bd2fafefd03U, 0x190e0e03f7fefaf3U, 0xcce80af9f00cfffeU, 0xee041302030504f7U,
  0x7fbf902f6f5fa03U, 0xf4fa08f6fef3f12cU, 0x40a031705f5f809U, 0xfa00f60d0201f609U,
  0x1030402fbfb020dU, 0x11f3fff001fb06fcU, 0xe0070d1d02fd0bffU, 0xfef6fde2e9fffef8U,
  0xdd0e0cc030a0805U, 0x381109f5fbf7fcfeU, 0xbe208f6111007f7U, 0xede812fefcfe01f9U,
  0xf2fa06eefff502f6U, 0xfd09f80e04faf4f8U, 0xfc0e0003fff502fbU, 0xee08f8e7fb01fd09U,
  0x16e8fcd70309f5efU, 0x1cfefcfdf800ffffU, 0x4e6fa20fc0908f8U, 0x16fb020c01031613U,
  0x6e6f4ec0905fefbU, 0x2a12f80906f3fcfeU, 0xfa06fdeb1416010dU, 0xd110ed09f503faU,
  0x11090fea07f2f705U, 0xf70909fb0509f5f8U, 0xe30bf6dd020a0600U, 0xff0c17f1fdfdfe00U,
  0x16f6ff02fe01fcebU, 0xdf0f41ef9fbf90aU, 0x5fff015f9f90af5U, 0x409ff02f01a031fU,
  0x9e7e600f80bf6fdU, 0x2415f4f90004ff00U, 0x1a0f0bf3ec1efcf5U, 0xd2f6fefdfdf604f6U,
  0xf1f8040507f60501U, 0xf109fbfe02f7fdf5U, 0xf30bf9020903f8fcU, 0x10fc01f1fafcf9f5U,
  0x12eafde202faf809U, 0x12f4f012fafef9fbU, 0xf3ee270ffcfcf7fdU, 0x5f5fa14eaf61ef0U,
  0xfdf6b608fd0108fcU, 0x2150de70b0107fbU, 0xef23ff0df416fe07U, 0xfa030a0bf7fcff06U,
  0xe7070708f901ff05U, 0x418fceaecf90210U, 0x902fe0d08f70507U, 0xf6f2e610f30a03feU,
  0x13f4fee9f4f5f010U, 0x7f30903f504f8fcU, 0xf8effb0df8060804U, 0x61701f706f115U,
  0x505e3ebfaf60bf5U, 0xf8d60f09f5f6fe00U, 0xe9340d01de070206U, 0x16061005fffcfef6U,
  0xfa0b0aebf5fc0302U, 0x40bf7fffffdf20fU, 0xe021320f8f8f7fdU, 0xfe0e02f9f309fcffU,
  0x5fbfd0cff04ed17U, 0x3f70a1809f4f8faU, 0x4ee20f60b070705U, 0xfe0af40ced0e28f9U,
  0xa10f6ef05f60204U, 0x9e104faf703fbf9U, 0x50ff9faff01001dU, 0xd1804fafc09f5fbU,
  0xfc04fae1f9ff0703U, 0x500f6010a01f5f0U, 0xf703160703fa000aU, 0xfe06fbfcf3f9faf8U,
  0x707f1fc000402f3U, 0x3f5dd0307f6f90aU, 0x3ec0802f609fb05U, 0xf00c0c07eb0a1000U,
  0xfef8f9fff7fbfefbU, 0xde402f4fe07f4ffU, 0x1813090b012b0a02U, 0xf915f8f8fb02fa08U,
  0xf90c07e905f7f501U, 0xb02fff100f0e922U, 0xd030e04fefcf8fcU, 0x12fffc1802000104U,
  0xf0a07e90a00f120U, 0xf7fbfe08f9ff00ffU, 0xfcebecf8fb02faffU, 0x20a0b04e10d0f04U,
  0x616f3fcfb02f505U, 0x24e20102f6f9f401U, 0xf727fc0506f8fd0aU, 0x18fdf8fefd00fbffU,
  0xdf0912f5fdfd0701U, 0xfef9f30b00f8f30dU, 0xf6fceff40303ffU, 0x4f4f104faf7fe04U,
  0x5f803fd03fa0c10U, 0xf9020dcc08060608U, 0x1e1f101f6fafbffU, 0xf509060ff01406fbU,
  0x7fa01010af90800U, 0x1ce4fef7f801fe02U, 0xf2f061813e90afcU, 0xf74ef8f208fdf9ffU,
  0xed020ed2fd0600feU, 0x1bfff408f402f7f6U, 0xf7f703c8fa010503U, 0xfbebedf2f3fdfef7U,
  0xa0b11fc08ff0220U, 0xfaf400edf907f902U, 0xfebb0418fe020400U, 0xf519f91cf607160eU,
  0xf3fcf60ef7ff0af4U, 0xef0303fcff0603f8U, 0x700f402d708fcfbU, 0xcf8070dfe00fb06U,
  0xee0201c10bfaf809U, 0x18fbfae9eef2ea05U, 0x8020ae8f7fb09f7U, 0xfef5e128fd0003faU,
  0x80a10d9faf7e425U, 0xe051dd3ff03ff07U, 0xf8c1de11f5f5fd07U, 0xee2d0001f707fb17U,
  0xff0fe5fd04fdf9fcU, 0xca080a04f6f302U, 0xe02c020904dcf8efU, 0xed18f4fbfa04f402U,
  0x9030113f5080802U, 0xf8eb00d900f20801U, 0xf6ef04cbfd0003f9U, 0x4f8fb1cfcfe07f8U,
  0xfc1114f404ffef22U, 0xf5010bb603fbf3fbU, 0x5f0a4fe0af709ffU, 0xf41b1814fa17fdfdU,
  0xe9fb2a0d0807fff7U, 0xffeafffe010808feU, 0xf14f90421f8f7feU, 0x41c07150201fdf5U,
  0xfe041904fafdf4faU, 0xefe092d04ff041dU, 0xfef9f3d9faf9fd08U, 0x100300ff01fcfaf7U,
  0x202fd0bfd11f9feU, 0x903fbb7ff0008f9U, 0xee11af3f6fdfbfcU, 0x224ee16fd062b05U,
  0xef17ef0600f806f9U, 0x60a01ecf9fd0603U, 0xf0ffff80f0efafdU, 0xf902fa0d0104fd08U,
  0x2eb080101f3f80aU, 0xcfb071609ef130fU, 0xfd0cf30507fb0609U, 0x206f701f6f4ffU,
  0xef11fdfafa03020bU, 0xf01409f90501fdfeU, 0xfddfe2010102f704U, 0xed2f2305f5091209U,
  0xef0efbff0205f90aU, 0x4eeeef4fb06f900U, 0xffeb0504f306e507U, 0xffec1b12f60a0909U,
  0x11f0f1f30607f4f8U, 0x50812ed1bddf114U, 0xe8111cdef5fe0501U, 0xa001906f4fcfd03U,
  0xf6fb10f902031b14U, 0x307faf4f6f70609U, 0xdb04f00901fd07fbU, 0x1fe22f8d705e4fdU,
  0x15e206e2f503f9ffU, 0x2f00fdfe0408fef5U, 0xc90e0ce4ff0dfd09U, 0xda0603f504f7f7f6U,
  0xeceb01ea02f3f4f7U, 0xf4fc0015fff3f614U, 0x5060636fb010209U, 0xfb07fd1afc0705f9U,
  0x1fafb1909051018U, 0xc01f4eef9f4f5f8U, 0xda0a211d01f8ff02U, 0xfafd00fae6060d0dU,
  0x1cd2c5edf9f6f608U, 0x531102f702f30304U, 0x11f90dee361e03f7U, 0xcfec09f8fef80104U,
  0xfe1010e6fbfdfefeU, 0x10c040501fd0a00U, 0xff02f6fdfe02020bU, 0x4f90308fb05ffU,
  0x4f9f4e2fe09ebfeU, 0xdfbf401feff04fcU, 0x1f2e729f500faf3U, 0x1aedee15fe031f1dU,
  0xbe00fe606f704f6U, 0xf0a050e04fe0000U, 0xf61300ea1bfa080bU, 0xfcdc14e3f8f907fbU,
  0x15131c10f9040104U, 0xf916fc0514feff17U, 0xe607fdd20201fd02U, 0x13081302fff606fbU,
  0xfff7fefc100806f8U, 0xf6efeafc01f2fc05U, 0x1601ec0af5fefbfcU, 0x307fd12fc0c1208U,
  0xfed5f005f6fbf9feU, 0x190cfff201fcff04U, 0x1d03fdf8f323f3f9U, 0xe7ff05f7faf9ff01U,
  0x301f70403fbf208U, 0xf81001e9f806eaf5U, 0xed0109eef704f6f6U, 0xc0c11f7fa01feffU,
  0xfdedf6e70d01fefdU, 0xf0f0f4f705fc00fdU, 0xff01cf706f6fef4U, 0xff10e721f60c15e9U,
  0x10eaa10afb00fb02U, 0x6110ff609f4f7f5U, 0x27280409fa260307U, 0xfb040510fcf8f702U,
  0xe7070ae5f805f907U, 0xfb0002d1e9fdf819U, 0x1a0bf703f9fb0405U, 0x4f2e2fc000b07fbU,
  0x7f402ea11f20824U, 0xf1001c04f7fbfd04U, 0xdf41103f5f9ff08U, 0x2091c20f304f906U,
  0x110fcdf9fdfdfdfbU, 0xfbfb1304fc07f5f2U, 0xe83f05fded050bebU, 0xf605fd04fcf8f705U,
  0xe60c0dd502ff01f8U, 0x30d0103f8f7e6f6U, 0x303fd24080603ffU, 0xfef7f60ef7f9f800U,
  0xcedf91801ffeaf9U, 0x5fa0deafd02fffcU, 0xbe917060205f602U, 0x214f524fd0717f4U,
  0xd0af602fcf9fef9U, 0x15f6fb040704ff05U, 0xef20fe11050cf813U, 0xf709fb02fd0806fcU,
  0xfa0c05dbfdfd03f5U, 0x7ff03fdebf3feedU, 0xf607151afafb0af7U, 0xa02fdeaf703f6fdU,
  0x16031105f9f60a01U, 0xcf7ed070300f5fcU, 0xfcf5f61401f701f7U, 0xfa16fffbf701060eU,
  0x61212ec0903f6fbU, 0x20b03ef0203f601U, 0x6140005da3004faU, 0x1501f61105fa0008U,
  0xff080ad602fc0404U, 0x1508f91903f8ea26U, 0x9120b1df6080909U, 0x11faf20c06f70008U,
  0xe02140712ed0532U, 0xfffe0b05f4f6f4f6U, 0x4f6f70101f60bf4U, 0xf81e1a00e30f0b05U,
  0xff1908eefaf705ffU, 0x1ee206fc0900f302U, 0xdd2f00fffefa0301U, 0x1c0ff102f800fff9U,
  0xf1ff04fbff03f6f8U, 0xfc0feeeff4fcea06U, 0x40011edf8ffff01U, 0x7fcf0f10408f6feU,
  0x305faeb08eafa06U, 0xfe0317d40406f50aU, 0xbfccb180400f900U, 0xfe0c1007f00b04fdU,
  0xb031505f908fdf5U, 0x18ebfef602f3fb01U, 0xf2af70702f8f0ffU, 0x113b04f1f5fbf505U,
  0xea020bd2fa00fc04U, 0x10f9f20b01edf610U, 0xf6fefcd5f80106ffU, 0x2f7e00801090005U,
  0x60600f304f9ff16U, 0xa0907d1f4f4f70aU, 0xacf0a1507f700fbU, 0xf01b0408f502141aU,
  0x217fcf8f8040809U, 0x31a02fffef404faU, 0xa16fdfbe222f902U, 0xf2f0070f08010606U,
  0xfc04fee000fe04f7U, 0xffbf7f007eeed0aU, 0x4fb07e702020b04U, 0x1f8f21e01ff06fdU,
  0x30d10ebf7f60103U, 0xf70c0bc0fb06fafaU, 0x1d8df010107f903U, 0xff220b00f1070e03U,
  0xf507f215f607fd06U, 0xddc2ff1201fc02f6U, 0xf64913f1e9eb0411U, 0xc3af3e5f705fff8U,
  0xaf7f406f507020bU, 0xcff010f01f4040dU, 0x100fcee070304ffU, 0x60bfc11f402fefeU,
  0xfb03130afc09f23aU, 0xf9010ebff705f6f5U, 0xae9c6f0fd0202f6U, 0xe822ff160115fee7U,
  0xf8010610f601fb09U, 0x2f5f7f909000202U, 0x919f90b0e00f911U, 0xf60f02fafbfffa04U,
  0x80005e7fdf50009U, 0x10c152904011425U, 0x8f9fdedf6f90bf6U, 0xfd0d080303f5fd05U,
  0xa030e08090813U, 0xff0905d3f4fcfa01U, 0x7d81a050a0803faU, 0xfc27fd0cfb041a0dU,
  0xef0ff60bfe04f9fcU, 0x1111fdf9f8f90803U, 0x1f0802070e1401f3U, 0x2cf601fff8f404ffU,
  0xfafd1203fff7f40aU, 0xb02fd0efb000f05U, 0xcfffceb02fc0b09U, 0x50f06f9f7030305U,
  0xf70d1307fd01ff00U, 0xc13020104fa05U, 0x1d9d80408f8fafcU, 0xf93d3705faf90300U,
  0xec1d0cf6080406f9U, 0x6ebfe06fb0503f6U, 0x10ed080df308e721U, 0xfb10e90bfbf707U,
  0x6f1f0fd0206f405U, 0xa0512010ce9ec0bU, 0xf11313eb08f601faU, 0x7fb0c0ffb01fff9U,
  0xd061704fffa0a11U, 0xa0cf4f808fd0001U, 0xd902ee09070afaf7U, 0xf40141f6ca08e90dU,
  0x15e329f80405f9feU, 0x11040afaf9f400f3U, 0xea0b1aec0305fd06U, 0xfb0e180909fff6fdU,
  0xfbfdeffc000307U, 0xef0a13fc06e0f60fU, 0x1a1928fb04f603U, 0x3ee08260004fefbU,
  0xfdf4ee1402fc0c21U, 0x1fa01d90705f5f9U, 0xe4fe191afbf600f7U, 0x3fb0816da09181eU,
  0x19e5c8ef03f4fff6U, 0x49060cea0bf90302U, 0x9080b07311d06f3U, 0xc7fb050cf702f6f3U,
  0xf80420ec06060705U, 0xff1a0610ff030812U, 0xfb07f4f9fffb00f9U, 0x7f9f8020400f6f9U,
  0x702fdf9fbfffd10U, 0x11fbfdfc06fbff02U, 0x5fffc15fcf808ffU, 0x1609032de71b192dU,
  0x16d906e90bfe00fcU, 0x15fcfdfe07070502U, 0xff0900f51f0a0314U, 0xf6eeffed03f7fcffU,
  0xfb07250df9fa00feU, 0x20905e811f2eb19U, 0xec0b09c700fdf6f6U, 0xf90807f507fcf709U,
  0x11f507edf50508edU, 0xdedded009fd0501U, 0x1203eb34000105fcU, 0xff120c07e81a262fU,
  0x9c7edde05060405U, 0x70aebeb03f500fcU, 0x220c08fb041305fdU, 0xf61cf9fe0a02f304U,
  0x1408f8140507f9feU, 0xd0412fd18ffdf0eU, 0xf8fb0807fdf7fef9U, 0xff0bfd0ffd08f607U,
  0xfe0100edf90c0803U, 0x4f5e0d9fef8f700U, 0x12050e2bf50906f6U, 0x205f92ded0b1410U,
  0xcebad020305fa07U, 0x91001fd08f9fb01U, 0x2442f001f615050bU, 0x412f2fbf7000304U,
  0x10e05f5f8f8f9f5U, 0x110600d707fae317U, 0x2fb12f20702f706U, 0x5f9080bfefff6f9U,
  0x609f2fafe0d01U, 0x9f70ede0707fdf6U, 0x1082a1b04fa0102U, 0x3140830defb1123U,
  0x100e3fdf6010afeU, 0x1d1a0302fffdfff8U, 0xdc1ff9f2f01304f5U, 0xefe3f20403f407faU,
  0x2040fddfffaff09U, 0x1609fdf3f8f3fb05U, 0x2fffe0003fe0107U, 0x6f8f20001f5f3fdU,
  0xfd0302fff1f6f5U, 0xf9f915e4fb08fa08U, 0x1250803fc0205U, 0x31d0216e00c1603U,
  0xf01eaf302f6fafaU, 0x26120816fbf3ff00U, 0xf0240404f3280000U, 0xec0503e7f9010803U,
  0x2070ffd01000205U, 0x3f919eee7ee0604U, 0x4fffaef0205faffU, 0x6fcfeecf7f70004U,
  0x1f90fea00fffeffU, 0xf606f5fff9fefe08U, 0x13fce71a0805f9f5U, 0xfc160efdf0fb0e09U,
  0x70211f402fdf807U, 0xff140b00fb080204U, 0xc2d0100f81cfe05U, 0xb1bf2f60009f505U,
  0xef090be003f90405U, 0x9fd0103fdecf922U, 0xffc00f9f5fc0bf8U, 0xfe01eef3f7f5faf8U,
  0x11f80e0708f7f111U, 0x1080705fdf8fc0aU, 0x14f3ff18f9040a00U, 0xd1c000df0001208U,
  0xfc0df402f9f5ffffU, 0x1b05fdf10603f6f5U, 0xf127f7f814080702U, 0x1507effbf80202feU,
  0xfa030bf90106fe01U, 0xc1307dbf5f4f1f9U, 0x80103f0f9fa0505U, 0x5eeece2ff0000fdU,
  0xaff0adcfa01f4ffU, 0xf70410f2faf6060bU, 0x4f8bd1b020700feU, 0x616f309f2090d14U,
  0xd11090506fb00f5U, 0xe30101fd000406U, 0x121509f6e5f9fc01U, 0x3c1906f906fa02faU,
  0x4ff08cd09f6f8fdU, 0xd04fc0b0bfbf525U, 0xfd0508f701f40b09U, 0xa07e50af80bf509U,
  0x110e15ff05ffee1fU, 0x10301d0fc0206f8U, 0x1dcf90e07030605U, 0xf93008fcfb00190aU,
  0x41c0502fd0a0af6U, 0xfe041308f9fc0007U, 0x101bf801ff060f00U, 0xafe0101fa0107f4U,
  0x506dff5fcfbf6U, 0x40f06ee0af7f606U, 0x60e0ff6f50203f6U, 0x409ed23f40102f6U,
  0x8020e0904f60112U, 0xf1050ad703f401faU, 0xffe7e5f8000803f3U, 0xb1a15e50422f1U,
  0x40c0a21fffcfcf5U, 0xefce0f08fdfafcf8U, 0x123d0b06f0f80c00U, 0x162cf3f5f6070308U,
  0xd0b03d6f9fb0200U, 0x150efa0f01eaef18U, 0x1fe000f01f4fff7U, 0xa05070cf30204f7U,
  0xfe0b061c0308ee35U, 0xeefdf5de02f3f706U, 0x2d9dfeafefffafdU, 0xff2ef118fd0e0cf8U,
  0xfe1cf22308030afcU, 0xfcf80004010707fbU, 0x192aff1315f3f911U, 0x81207fafb0205f3U,
  0xf00a03f7f6fdf804U, 0xfe11f7faf9f5f5fdU, 0x3f504d9fc0a00fbU, 0x205f707f90008feU,
  0x7fb0c0801f325U, 0x903fbe706ff05f8U, 0x2e5f30f090602f8U, 0x5220f11070a0605U,
  0xf00e02fdfb03fb08U, 0xb0704f10600fa07U, 0x26fe070f15f7f6f1U, 0x29ebfe11f7f5f5feU,
  0x8fe1ddbf703f6f9U, 0xd0a1412fe0418edU, 0x11ff0a210300f705U, 0x702f4f6fd08fd07U,
  0xf70507fd050ffef9U, 0xfc191afefc0600fbU, 0xcead903fd0afd07U, 0x82c1a08040000feU,
  0xf70b04fb0afcfafeU, 0x40003fa01040302U, 0x1fef0804ef0efef6U, 0x9f5fb0003fcf609U,
  0x2f6060e0905030bU, 0x11015fd08e7f402U, 0xf70503d7f7f9fefdU, 0xfefc071e060505f9U,
  0x4f512e701020f17U, 0xf605fada0104f409U, 0xfc0f0218f90401f3U, 0xfd103aecdffa0600U,
  0x1eee1c00fefe02f8U, 0xf91700f4fbfcfef6U, 0xdfc0efef919f7f5U, 0x14ef071309fffefbU,
  0x6fef812fffa08f5U, 0xf40623f6fbe8f822U, 0xc070bf1020708f8U, 0xf802f53cfafffa04U,
  0xfbf6ef19f606060dU, 0xf70608daf40203fdU, 0xf6151227010900f9U, 0x6100600d80afb28U,
  0x12ddd3e7f6fb05f5U, 0x24ec07f1070203ffU, 0x924f9fb131206f1U, 0xf5f4f90903fd07f8U,
  0xd03131cff05fafaU, 0x100b0d02ee0a12U, 0xef0303f808030703U, 0x3fbfefafdf8fc08U,
  0x2f60df307f9ff01U, 0xe0701f706fdf700U, 0x130c151c0007fd08U, 0x1e07f225fc1a2724U,
  0x9d7f0de0300fd03U, 0x1f18fe0808fafcf4U, 0xff26fbfb231eff05U, 0x1dc06f4faf80306U,
  0xfe0123f50101f9fcU, 0x1140afbfdfd00feU, 0xe90bf9eb04f70505U, 0xfe0600f908fdf3feU,
  0x504faf4efff0eeaU, 0x14ede9db01030905U, 0x180c0947fcfcf7f6U, 0x170d2b10ed052236U,
  0x6cfeada04faf807U, 0x1a2dede009000305U, 0x132703f7e92bf901U, 0xfd110417fdfffcfeU,
  0x10000b1901080706U, 0xa0716ff11fbff04U, 0xf30b09f400030909U, 0xfe0c0620fafa05f9U,
  0x12fc0fe0fc061508U, 0x2f1f0d705f80609U, 0xc1a002405fdf801U, 0x513082de40c0c24U,
  0xf7eec307ff09f7f7U, 0x19f3fbedf601f903U, 0x737f4f1f512ff06U, 0xf41e080504fef909U,
  0xff0cfe1500f4f9ffU, 0xa0de206f2ed16U, 0x902fff2fc040800U, 0xf3021004f3f6feffU,
  0x2f60f06fafc16e5U, 0xa03fce2f5f9fdf9U, 0x110b201102fdfaf4U, 0x100f0a26e2f90c20U,
  0xfd03e0e8fa0005f5U, 0xf50305effe000603U, 0xf817f706c8120df5U, 0x9e9f608000306fdU,
  0xf7f70cfc0bfa010bU, 0xff05fdeef6eff7eaU, 0xeef7fef407f70a08U, 0xfdf9f9f906f70406U,
  0xfef509e5f9f801f2U, 0xf0f0ecbf800fefcU, 0x1ef341404f908f3U, 0xf0ddf21d9f823ffU,
  0xbfeebedf4fff6fcU, 0x1ff60c19f8faf9f9U, 0x200c0001270b05U, 0xfef9f2fe0af508fcU,
  0x808200d07fbf306U, 0xa0310fb05f20209U, 0xed0c00d7040807f9U, 0x12fc0bdaf9fef2f7U,
  0x80709e8f7fc0407U, 0xfe05f6f1fff709f5U, 0x12faebfb0402f7f8U, 0x110ff918e7f10d0bU,
  0x1f1e015f603f9feU, 0x8130af4f8fefcf5U, 0x321cfc08021dfe0fU, 0x814f3fef8020208U,
  0xea1111d0f5070708U, 0x20720fe08f10710U, 0x200111109060501U, 0xdf7ef01f509fef7U,
  0x100c02f0fff1f30aU, 0x8fdf810fffbf9f9U, 0xfe90a29f80bf7f5U, 0x1517fe1afe071219U,
  0xffd003fd020b08U, 0xef1005ff08f8fcfbU, 0xf817f6f6f1fcf9f6U, 0x2e1ef20c020801fdU,
  0x1fb09fdfcfc07f6U, 0xb0907f5f3f206eaU, 0x1a030ff5faf80909U, 0xcf8efe608f6050bU,
  0x5fefce70ff0eae7U, 0xf2111613fa05f7faU, 0xcfdce19f7f809fbU, 0x9100b10fc100106U,
  0xc17051afaf60b06U, 0xff8f90703f708fcU, 0xa0b02fdf103ff02U, 0x2f0c0706fcfbfff8U,
  0x10c16e8fbfa00feU, 0x2311f81502fc0414U, 0x7050e0bfe02f705U, 0x8000e0a070005f6U,
  0xff040e01f9fa0509U, 0xfc0c02e4fef5fe04U, 0x1bfbf7fb010808ffU, 0x112b0306f40b01fbU,
  0xfc19110a030bf6feU, 0x8f409fe0006f9f9U, 0x918fa10ea090706U, 0x1407f31108fc0501U,
  0xfe0402fbf907f708U, 0x10002f609f0f80dU, 0x40913effb05fcf7U, 0xf9fa0d1dfd050309U,
  0xf080512f5050509U, 0xa0efafefefcf703U, 0xcebd608fe0bfaf7U, 0xc221d14faf31805U,
  0x51312230309090aU, 0xe6df08fb0400f7faU, 0x17220409e9ff0105U, 0x3226fc0804fef904U,
  0xfa0710e8040802f6U, 0x3180d0ef6fb0510U, 0xa0c03150201f6f7U, 0xfffc0500fc03f30bU,
  0x40814f703f4ff01U, 0x300fffef503f8f9U, 0x3e810f2fd0b05fcU, 0x329ff15f60504f2U,
  0xfa18ec2bf603ff06U, 0xaf908f1fff800f7U, 0x191efe070b01fe05U, 0x200f030d040509f7U,
  0xfb0307fa0808f904U, 0xd15f0ddef01f6e3U, 0x2f8fdfc05070603U, 0xf809ef1af6fc0607U,
  0x7100d1c00fe0509U, 0xe05060afdf2f9faU, 0xe8dd0b0209f7f6U, 0x1125210001f303fdU,
  0x3241af60301fcfcU, 0xd10f904ff01f8fdU, 0x2c1711ff06fcf4f7U, 0x16f5ff0d08fdfcf5U,
  0x18f705eb05fa0500U, 0xfcfd081014fb00feU, 0xfb090224020a070aU, 0xfa0ef6f604fc0106U,
  0x70d06090c09fef6U, 0xf51517fe01fcf4ffU, 0xffe5f50af901f6f7U, 0xd170b18f5faeef6U,
  0x520020e060500faU, 0x1302f30306f705feU, 0x13e6020309ff0ffcU, 0x2f60ff7fdfe02f9U,
  0xfcfc08fa09fbf8fcU, 0xfb0715eefe000cf0U, 0x607fa0e040609fdU, 0xffcfcf6fd000003U,
  0x2f717d319fd00ffU, 0xfaf60afa03fd0401U, 0xf8121017f5f70900U, 0x15091de201041edcU,
  0x4f1fc0204f6f8f6U, 0x115fd0e01f902f6U, 0x1de00bf70c1109feU, 0xfde20eee0bf7f605U,
  0xfefa0af402f308f8U, 0xf11c1dfaec000ae0U, 0x3100cfffcf5f802U, 0x2f80822030601fdU,
  0xefbf8f2fdf0fbefU, 0xa04f3f7fd04f703U, 0xe0c0d17000609fdU, 0x26f7ffe4fd020c02U,
  0x16f6e9f70700f8f5U, 0x9fc010708030408U, 0xa0403f71f22f6faU, 0xfef605fd0bf9f704U,
  0x12041cf70107f605U, 0xe81e1f040209080dU, 0xf514f91dfff40705U, 0x506f11906fc04f9U,
  0x10feeff102fefdf4U, 0x14030be4f704faffU, 0x90b0404f80105f8U, 0x21f6fe1106101208U,
  0x4e7e7eef60504ffU, 0x250c0a0309f904feU, 0xf91904fe2621fa0dU, 0xe2ebfbe80af5f506U,
  0xfe111b1af6fffdffU, 0xf61e0e1202f30ae4U, 0xee0f0beafdfafdffU, 0xc07f9fff8fdf2f6U,
  0xef9030104f60bf0U, 0xf5f302f4fa03fcU, 0xa24011007020708U, 0x1e09170b080f1c03U,
  0x9e510f8030003f7U, 0xfb2cfb130105fcf3U, 0x182cf309f72a0910U, 0xfefe0600fd06f302U,
  0x413170102050aU, 0xff0d10f409000e15U, 0xf4fb01e508fefb07U, 0x1504f129fef701f6U,
  0xfeff06e0ff010c1aU, 0xfb04f7db080a0809U, 0x91f0d01f602fbfbU, 0x110e140af9110dfdU,
  0xf2e804f80109feU, 0x21f2f814fe03fb03U, 0xb27f8ff17fff612U, 0xf7fafbfe03faf4faU,
  0x2120514fdfff700U, 0xfc140bd802f4fb07U, 0xe09f9e0faf802f5U, 0x30806defa0103fcU,
  0x3f4f9f60e0220cbU, 0xff0002fef7fb09faU, 0x8260f0c040bf8fcU, 0x19ff030df012f906U,
  0x4f9fee3fa0808f8U, 0x2091305010004faU, 0xfb1ffafbe30efe04U, 0xded01fe08fff406U,
  0xfb070ddb01fcf5f7U, 0xfc1513f5efeff2d3U, 0xeff70f00fb08ff0aU, 0x8f3e60f05f9f506U,
  0x8fcf501fcf7edeeU, 0xb04e108f5fefcU, 0x80519fc0500f905U, 0x815e41ef0f61df0U,
  0xcf7fe0800000401U, 0x1ef11c18f8faf207U, 0xf1a0cf1fc150a0cU, 0x110f01efff090606U,
  0x50d03ee0107f702U, 0xfe0b0e1407fdfa0cU, 0xf9fb0ff40802f8fcU, 0x12fb02c4fdf603f8U,
  0xeff000d05f2060cU, 0x50bf0f3f708f7fbU, 0xd03c3f502fc03f6U, 0x1513f5030508cff1U,
  0xf8f5170dfe0608f8U, 0x15030ef905fdf502U, 0x1015fd140df81216U, 0xf61601f5fbf60805U,
  0xe91106df00000408U, 0xc170704fefff4f0U, 0xa0502100907ff03U, 0xaece8e4fb0a02f5U,
  0xcfef8fe0ef0edeaU, 0x713050c08fd0004U, 0x700fa06f50707f8U, 0x1a0aff04ff07f8fcU,
  0x60bdb0cfff6fd08U, 0xec0e0df701f60402U, 0xee0208fdeb04fafeU, 0x121af21005fcf905U,
  0xf90dfcf1fbf3fb04U, 0x40c03eb01ffeee9U, 0x709070bf609f906U, 0x110beb1d07090401U,
  0xfb0903ca070cf4efU, 0xfb12150bf703fd03U, 0x19ffdefa0afa05f5U, 0xffbfc060bf6fdedU,
  0xfb070d1a0902fef3U, 0x18f3f70ef7fef5f8U, 0xf809fffc0b060212U, 0x17ff08faf6fc0904U,
  0x1a1504000807f609U, 0xa11f8c50cfdeef4U, 0x18ff0cf900020609U, 0x60e12ff0600fffeU,
  0xb0811effefdfe17U, 0xfc150ef207fd0209U, 0x13faf0f004f9f6f8U, 0x1b00f7070cf8fcf4U,
  0xf80c050f0b090afeU, 0x14fd0101fcf5feffU, 0xfa25f8f2020c0309U, 0x1424f4fdfbfb05fdU,
  0xc030cd9fdfffefaU, 0x310f4ea0dfeeef1U, 0xfe030c0e08fa0107U, 0x903f7ebfaf8fcfcU,
  0x3080dfcfb0a05ecU, 0xc070117fbfffdffU, 0x11000419fdf7f905U, 0x3fee50b0204f7faU,
  0x112020f0bf90707U, 0xe1ed0a0606f6f3ffU, 0xc15fc10e9fcfe0bU, 0x1e20fd0707fb0406U,
  0x3050cf508fd00fcU, 0x1808111006f6080eU, 0x19fb052005fc0403U, 0xfe0efaf9f803f900U,
  0x100b160402fb000aU, 0xff0f130eff04f905U, 0x12f60af7f5f5f7f9U, 0x171aea05030b1bf7U,
  0x813f01a05f50003U, 0x1006f10103fdf301U, 0x1506fd0e0c13070bU, 0xf6010f0a00f7fe01U,
  0x1040601fffcf302U, 0x908f502fa081414U, 0xd0ff7fefcf8f709U, 0x60200dff80bf3fcU,
  0xd0e1b0f01f810e8U, 0xf70c051108f6ff01U, 0x3f0d42000fa0407U, 0x70d120b0708feffU,
  0x51c2cf7fafd00f7U, 0xfe00f0fa0407f602U, 0x8110d000d060900U, 0xebff0b0807050109U,
  0x25fbf7f7fafdfe08U, 0xfc12f0f81c0207f8U, 0xee09f80004fdf5f5U, 0x2fb0b0bfcfcf402U,
  0xfd09f907030d0f00U, 0x709f7010702ff06U, 0xc0c0b0f0505fdf9U, 0x40903180104f3faU,
  0x403000700fefc08U, 0x4fffa000700fcf2U, 0x5d9ff080fd806feU, 0xce70cf5fffbfafdU,
  0xfe06112301f8f500U, 0xcf905e506030409U, 0x2fc03ecfefbf60aU, 0x1fce400fef501U,
  0xf8070a180d02feedU, 0x4f90b2305f9fffaU, 0x216f2070600f9faU, 0x1010bf408f700eaU,
  0xfef913f7f90805f8U, 0xea26120efc00f4ffU, 0x7c409f013180304U, 0xeddf09fd04fbf7feU,
  0x1705f1f4f90404f7U, 0xf30c12e1f100faf7U, 0xff0314fbf90104f9U, 0x409fc10f4090303U,
  0xf8f3ebe40008eee8U, 0xf502f006fefd0303U, 0xe16ea09f6fffdfdU, 0x27f302ed0701f4f3U,
  0xfef00dfb04ff03f9U, 0x30316090afa02f9U, 0xf703f3ea1a1a0304U, 0xdebe909fd0001f7U,
  0x808051cf9fdf806U, 0xf22214f6f3fc090dU, 0xfc0f10fefffc00f8U, 0x2150429f30506f9U,
  0xaede0f30002f81bU, 0x30404cefafafbf8U, 0xf725f0f4f4010403U, 0x1cfcecf90a0cf20dU,
  0x11f5def6fff6f7fbU, 0xff90afaf8f6f5f9U, 0x804fbff18190410U, 0xed0af7fa06ff06f9U,
  0xfb0d092c05fbfbfaU, 0xf7201111fe041607U, 0x9fe06d908f80004U, 0x15fc0301fcfbfcf9U,
  0xdedf40f0bfb13edU, 0x1feef0909f7fd06U, 0x141a07e908030a00U, 0x1ffef6070f0611f9U,
  0x5fa1f05f8f8fb08U, 0x32f10f107f6fdfaU, 0x80f05090f1d0e0cU, 0xf0ef050afefa0305U,
  0x61b0b0d01fd0307U, 0xf31c0dff13140911U, 0xfb02fb0c0b020408U, 0x401fa13f6ff050aU,
  0xfdf913f90b120426U, 0xf9090703f3f60703U, 0x1a291506f7f8fd07U, 0xa0cfb01122106f5U,
  0xfbf8fbfef7f90201U, 0xeee080701f208f8U, 0xfd04faf713f31109U, 0xfef5fd02f5fdf603U,
  0x7130efdf6f40109U, 0xf01603090c0dfef5U, 0xff05030e0b05f602U, 0x17fd1deff30a02fbU,
  0xe8e9eb080c20e6U, 0xf602f70af7fdffffU, 0xe14fe13020b02fbU, 0x120e05000715fefbU,
  0xf4fefde1fe0502f8U, 0xfb351300f60202f8U, 0xa1702eeea201308U, 0xac70af4fefbfb04U,
  0xb0ffdccf608f30aU, 0xf61715f2f914fed7U, 0xf204082705000901U, 0xefcf5fd04f8f3faU,
  0x5eef60103fbf4e4U, 0xc07fafbfd060509U, 0x51f1d07050a0a00U, 0x1d0be5fa0b021ff5U,
  0xf7faf102fffdfffcU, 0x12ee17070108fbfaU, 0x15fe03f9ee051304U, 0x40103f305020701U,
  0x171206f105fafb01U, 0xf81405ff0404f11aU, 0xf0f809fd0a0404f9U, 0xff0112e3f40a0204U,
  0xbfe0cfc06f5080cU, 0x11fffef705f90406U, 0x505b0f709f7f6feU, 0x1717fb070302d3e1U,
  0xff102e0a0a0a04f3U, 0x8020ef701f8f8faU, 0xbfb0c1304f70500U, 0xfa10f8faf80207fbU,
  0xf50f03ef060000ffU, 0xf5130600fd05fbeaU, 0x11fb00180606050aU, 0x15f8f3f103fcff0aU,
  0x10fbf9f7090205f7U, 0x50dfd0ef5fbfefaU, 0x4f4fc0403f9ffffU, 0x1f01000904fbe8f1U,
  0xe09e10c02f904fcU, 0xdc230c02f9ff0505U, 0xf8fb0809f01000f7U, 0x101ef1409010a05U,
  0xf80a0a02f704fcffU, 0xfc1d07d0060df2f0U, 0x15f81107fc0305faU, 0xd00fd11fb02f800U,
  0xc0109d5fef7fbefU, 0xf80617fffdf1fffcU, 0x15fde10df905fefcU, 0xbfe02060a08f8fcU,
  0xf70c1afb08ff0704U, 0xf001f9fd09030404U, 0x1a010004071dfcfdU, 0x29fafb13fe0a03f5U,
  0x1108ff17fdfbfd0aU, 0xf91600cd1703fcf6U, 0x8fc0e090209f80aU, 0xfe0705fcfe07f3f8U,
  0xc03fd0c0105090fU, 0xfc161c0cfbf6050aU, 0x903f20402fa03f5U, 0x11f9f61309fc0506U,
  0xfc0d0f050bff0205U, 0x50602fdfef402f9U, 0xef16fcfd0008f80eU, 0x1d020202f6fd00U,
  0x240cff0401040800U, 0xf6fdef0d11fbf6fcU, 0x7020108fc0503ffU, 0xfd160ef7fcf8fb0bU,
  0x6030600fbfd06f9U, 0xa0d0b0007fcfe03U, 0xfb02111706f907f3U, 0xfa06ca07f5140107U,
  0xef0bfdf6f8fc09f9U, 0xebf8fb01f902fdf6U, 0xfc060b05e4fd0105U, 0x1219050b02fef5f8U,
  0x150d0b060701f4f9U, 0x10cf7051e05f3f9U, 0xeff0cf908fb0104U, 0xf911fedef8fc00faU,
  0xd0b18eefe0fffe5U, 0x10a0dfd04fef7fcU, 0x3ff05fe00080bfdU, 0x151b0a0e04072afcU,
  0x320fd12f9ff0105U, 0x213fa0e070706f9U, 0x11fb04fa0f15fe05U, 0xff0df9faf9f9f4U,
  0x14040f0a03faf307U, 0x1300fc090709feU, 0xfefb00fb09f90af5U, 0xf81304f5fefefe08U,
  0x71b0aed010e14deU, 0xf100ae60304f50bU, 0x512f307fafc06f8U, 0xe0f2107f91a0415U,
  0xfe0f2103010b03fcU, 0x901f2fdfcfef609U, 0x60efeff01fe03f8U, 0x17fc0b0706fdfcfbU,
  0x16050004fcf80408U, 0xf913f5fe1dfb060dU, 0xf30511fe01f5f802U, 0xfa1601fefcfa07f8U,
  0xd08f203f80ffff5U, 0xc0e0af6fcfc0809U, 0xb0b0907ff0901fcU, 0x31c17030407fa08U,
  0x411faf7f60409U, 0x11df4fa05fef4fdU, 0xacc030b06ec0f04U, 0xeb100806fb0807U,
  0x9081b03f9fefff7U, 0xf02e40f0dfdf8fcU, 0x8faff0bf80a03f6U, 0xfb05fa0a00f7f4feU,
  0xfb00fefd0000fff8U, 0x80708fb04fcf404U, 0xff03f70300f90bf9U, 0xec0e04050102f904U,
  0xfcfd01f80afdfcfeU, 0x7180bf304fcfdfaU, 0xe9ca17f8ff07f6f4U, 0xd4f9020aff05fdfaU,
  0xf7fef3090508f600U, 0xfd12ee09eafbfd02U, 0xf1faff0801050a09U, 0xfefa09f8030208fcU,
  0xf7fdfddaffe9ffe6U, 0xfb0fe900fb01050bU, 0xf90417f700fc0203U, 0x7e1fcfffd00130cU,
  0xfef4f90502f8f6U, 0xea080efafcfdf300U, 0x3e800f1f70e08f3U, 0x1e02f00bfa0af9feU,
  0xfdf6080bfbfcffU, 0xec0bf5f6fb020904U, 0x511fe0a0800fa08U, 0xfdfb0203fb0a0408U,
  0xf9ddee2602e2e800U, 0x30cfffbf5f4f5fcU, 0xfe11f1fdfd0bfaffU, 0xfbec13040dfaf607U,
  0xfa0af504f7fa0104U, 0xf1f5050bfb04f3f5U, 0xeb0cf8ede00afaffU, 0xb13f6eb0a08f6faU,
  0xa0bf30d02f70103U, 0xf20cfc00fb0b05f9U, 0x30a01f90000fcfaU, 0xdfd02fef8fb05f7U,
  0x9ede2fefff702dcU, 0xf702f8fefffdf8fcU, 0xd13eafe0709fc00U, 0xfb04f81703ff02f3U,
  0x312030100f805U, 0xf9210fecf5010803U, 0xdfed00f6f71cf8ffU, 0xfccc04fd06080008U,
  0x30afe1bfe02fe09U, 0xe417ff0e031606f1U, 0x603fafc030900f5U, 0xfcebf50906030201U,
  0xf7f5fbf2ecfcf907U, 0x1091100f9f60909U, 0x1b27190dfe01fc07U, 0x704f7220c0f03feU,
  0xfaeb0807fe0b0705U, 0x19e7f904010200f5U, 0xcdf30eea00e3fef3U, 0xdb0e0af4f8fd09fdU,
  0xf11d0bfdff07fef5U, 0xef15001e0d05ff09U, 0x705f208f60701U, 0x1ee00050405faf6U,
  0xf7ede80804ea0200U, 0x7fd0301f9fcfd02U, 0x12feff0c04f805f5U, 0xfcf50e0b04fefe04U,
  0xf4f70ef301fb0a00U, 0x23610fdfcfa0502U, 0xf008ffe9ef0c0604U, 0xbcd02ed0602fd07U,
  0x1171215faf3f4fbU, 0xeb19fa07f50a01eaU, 0xf9000b06fc02fb07U, 0xf1f6000808fd04U,
  0xfdead8fa06f4f5f6U, 0x20af0fffdf5fbf9U, 0x190d30fe05fff602U, 0x406e71008032bf6U,
  0xfe02d9faf70900f8U, 0xfeafe0afe0707f6U, 0x8fa0712f1f7021dU, 0x910060505fb07fcU,
  0x8170be5faf7f706U, 0xec1703d90003f703U, 0xf50814f20a08fe05U, 0xf5eefe0003ff0609U,
  0xf7eeff0109ecf702U, 0x11fbf80ff606fd07U, 0x16e8cb0cf60af8f8U, 0xa10fa170df7edf6U,
  0xf9191ffc0b05fe07U, 0xf2fcf7f1f600fe02U, 0xcfa00fb09f502eeU, 0x1e1004030905fb09U,
  0xf40b0dfc06f80202U, 0xf81404fb061307e1U, 0xfefe070df5050001U, 0xf1ecf7fc0508f302U,
  0x5faf5db00fbf5f6U, 0xfc05f2fff70200U, 0x14f01013f7f5f703U, 0x150c170f0408ef0aU,
  0xf318e2fafaf6fa07U, 0xff23fa0e03fffaf4U, 0xeed104ef08140410U, 0xf3f3fe0203fc0203U,
  0xfa14fc0afdf90808U, 0xfc1dfdca0a13f6f3U, 0xfff60a0ef9f904f9U, 0x8edf512fcf5f3f9U,
  0xf8edfce60ef2f802U, 0xfc0403f1f8f7ff00U, 0x1401dffc01fefbf9U, 0x5e71c170d0a05fdU,
  0xfe091efcfdf70601U, 0xf915f90af9fffd07U, 0x1f40df4f424f900U, 0x10f909fc050807f8U,
  0xffd02f9fb06fe08U, 0xf007f7f61108fdfeU, 0xfaf407f907fd0b02U, 0xc0501f6020202f7U,
  0x3fbf1f706020201U, 0x7100bfdfb01fb02U, 0x120ced11f50100fbU, 0xfcd3f20b05f8010bU,
  0xfe0b10ffffff06ffU, 0x71bfb14f606fdffU, 0xdd09fe10ff220409U, 0x1b08fa06f803fe08U,
  0x14090c0701fc02f7U, 0x803fd0b23fefffaU, 0xfc052004090301fbU, 0x3fd1108f2fb0001U,
  0x5f8010504fd0806U, 0x209f4f8f3f5fff9U, 0x4231e11fdfb04f3U, 0xf2d1cc0b0406f709U,
  0xee01fafdfefa07ffU, 0x51705fdfb02f8f4U, 0xdbdd0004ff07feffU, 0x11f0fa0a03f8f902U,
  0x9f80c090005f508U, 0x9fbf0041d0103fdU, 0x15fd010bfef50603U, 0x305030304fa0104U,
  0xcfbfb01f4f7faffU, 0x50a06f9020708f9U, 0xb160105fd02fef5U, 0x1f20300f226f704U,
  0xff0bf5fdf90afb01U, 0x517fe0207fbf804U, 0xfdee03fb0c1cf80aU, 0xfde708f4fdff0003U,
  0xbfe09fffb01f702U, 0x806ea020cf5fd09U, 0xfefdfcfd02050802U, 0x208fd09f8040608U,
  0x3050705f8f9000aU, 0x200fd03faf6f4fdU, 0xff0403030606f502U, 0x403ff0b030ff702U,
  0x81302f208f8fd05U, 0x50bfc0403f9faf7U, 0xf90a02f9fe09fc00U, 0xf7fc010afc06fff8U,
  0x22f0050802fcf7ffU, 0xfafd04f623f60c03U, 0xf702fa01f8f80af9U, 0x5fe1e00fdfef9fbU,
  0xf800040102fe0b0bU, 0xf50c0ff7f5f405feU, 0x117eb0703fd0500U, 0x60ffffe010c05fcU,
  0x50f0f06fbfbfaf5U, 0x8241404e3e6101aU, 0x1000206fb100d0bU, 0xfabffa0cf606f5fcU,
  0x1f7fa21fef2f2b1U, 0xfd01f90909f602ffU, 0x20809c8f804f80aU, 0x9fafe0d030806c5U,
  0xf6050701101908edU, 0x7ea14c0fb03fbfaU, 0xe90efe11ddd30001U, 0x5f9fafee1f9f10dU,
  0xe3f304e902f8fffbU, 0xfa320c08f10f1509U, 0x706fce6031c00U, 0xf5f811f707fffa02U,
  0x303fa0afbf6faU, 0x6faf409fef5faf7U, 0xf9fa0cdf09fd06faU, 0x60902130a11f0fbU,
  0xff04f9fef816f6dfU, 0xfdf5e3dffef7f606U, 0xfa231405efe6dc0bU, 0xf70af609ec0e12edU,
  0xe9eaf104fe0400f5U, 0x14071409eff603fcU, 0x103fc01f0ed1505U, 0xf9ee000806fb0701U,
  0xf705110115fbec16U, 0xfef402f80504ff0bU, 0x8060a0702f8f6f7U, 0x13fb1aef09130debU,
  0xf9fd00081014fcfaU, 0x5effbcbfa00fa0aU, 0xb2711f6f7fbda06U, 0xfdfaf9faf503f304U,
  0xfef3c1eef50208faU, 0x7090efef30f130bU, 0xaf8f8f4eef905f4U, 0xf1f814ff000304faU,
  0xf60c0b0807efecf3U, 0x3070002ff0aff12U, 0x70615e4fa010309U, 0x4e7e209001315ebU,
  0x2f6f5040b08f817U, 0xdfc15e4f70afc08U, 0x141f21f3eaf21305U, 0xf3faf6f9f60ef504U,
  0xfdf619ea0608f7fdU, 0xe10071010fd05f6U, 0xf800f207fc0c03fcU, 0xf7de11fe08010600U,
  0xee13fadb2afc0d28U, 0x8fbfe050ff5fbeeU, 0xf90919fe01030204U, 0x14e401effa12150dU,
  0x207fffa0b0813deU, 0x13e40007fdfcf501U, 0xc17eaeb0cf80dU, 0x5f9f7fef40503faU,
  0x10dfd2fff70a01U, 0xf110810e1fc08faU, 0xfbff00031df105ecU, 0xf900faf70706f6f6U,
  0xdd0004ef27f3f808U, 0xfcfa02f600fb12f3U, 0xea1d0de7fb0aff04U, 0x12dff5effb1e10e4U,
  0xfff8f5f9011002e1U, 0x3e1ee07f5f5fef8U, 0xf6e81804ec1afa16U, 0xfa0af7fa03f7040fU,
  0x160908fbf3fb0bf7U, 0x19fb070cfce7fcf8U, 0xfc0208fbf9e908f4U, 0xfc1afa0b0a060000U,
  0xf60cfa0142f7f724U, 0x6f5fc0f081605U, 0x2705103405f800fcU, 0x5f2e4ef022d29e7U,
  0xffff02fc0c160af5U, 0xafd0521f8fcf606U, 0x9e5dfeff522f401U, 0xfefc010200f1f419U,
  0xb26fef9ff03f504U, 0x81dfc0ff0d113ffU, 0x1f8f7fcf7eb0ef3U, 0xc000d0709fe080aU,
  0xf00feb0b22040b1bU, 0xfafffafc1d13110fU, 0xc101cff00fb09feU, 0x8e2fbe502172ae2U,
  0xfff30005040d0accU, 0xafb122d04030904U, 0xfb0209f8040220dfU, 0x4fd0bf505f9eefbU,
  0xa0236e9080a05f9U, 0x50f080202e806f8U, 0xb05040108fafe02U, 0xfff1000cfa0704fcU,
  0xe20bfccc1402fe0eU, 0x2f4fbf9020908f0U, 0x50d0a12020a09f6U, 0xfecc0ce90515f1eeU,
  0xf9fc0705040202e7U, 0xa01f104f7050007U, 0x8ef16e9fd000915U, 0x20700090ef0ea04U,
  0x1d0c02fe04f9fcfaU, 0x30e090ff0ee1300U, 0x20b040003040300U, 0xf90ffb08050b01faU,
  0xd00801d90f090215U, 0x2f4020a04050902U, 0xff0f02130106f705U, 0x7d4f4d7080c17faU,
  0xfc0506f80800f6f8U, 0xcf1070c02f70704U, 0x2dfdd0c020bf4f5U, 0xf4f603f4fff4e70cU,
  0x60a19fe0000f903U, 0xb050916ebfa0a09U, 0x2ff07fc0ae8fe01U, 0xb24060d08f5ff06U,
  0xe210f720f3fcfdf3U, 0xafa02fa0814fcfaU, 0x2161817fa04fdf9U, 0xfe318f00ff5f9e9U,
  0xf6f305f9020502d5U, 0xfdfafd1e0107010aU, 0xfbebb9e607fa1b03U, 0xf9fd02f4f9f0f0edU,
  0x80e1b1ef3fb0bffU, 0xf6110606db0a0b0eU, 0xf5f7fd03d2011308U, 0xf204fa05ff0b02f6U,
  0xc3010be11714f70aU, 0xf9f7fef9fc15fcfdU, 0x1b01100204f802feU, 0x7e9f4ff08f80804U,
  0xfbf605090f030be5U, 0xf5210bf6fe07f6U, 0xf7e30eed081ff2f1U, 0x8040205fff7fdf4U,
  0x5141800fafcff05U, 0xf6ee0d09f6001603U, 0xfcfdf601e8030b12U, 0x221a0103090307f8U,
  0xe31308fff712f410U, 0xf5f4f709070d0926U, 0xfd08f7ecfcfbfb03U, 0x13ef06e302ec2ef2U,
  0xf9fbfb0b0f031a16U, 0x5f91afd03f501feU, 0x7e8d4c9ff281be1U, 0x3fc0af50419d1faU,
  0xfdf623fb06ff0902U, 0xec1000f4f1060703U, 0xfa01f9fcf01f0710U, 0xf715140c04f6f808U,
  0xda06f5cde60410d8U, 0xfc04fb0afa0000dfU, 0xf30a05f909f7f700U, 0x1f7d7f715f801edU,
  0x805fd040cf908fbU, 0x6fd020703fbff0aU, 0xf7e2f10df7112bf2U, 0xf5fafbfc212e06U,
  0x107ff0a03050700U, 0xe0130c0a11f81108U, 0xf907f707f5fd050cU, 0x32fb10f90801fbf6U,
  0xfffe08eceafbf505U, 0xfcf9020410fa011cU, 0xeafefd100007fefeU, 0xaf4fa0c00faf3f6U,
  0x7ff02fb0d20f204U, 0x1fe09fe04f90206U, 0xce3cf0200051006U, 0x5f70af7f617211eU,
  0xea05040bf5fc05feU, 0xfe15170eff040704U, 0xf809ff02080b0e13U, 0xf6e902d5fbf50902U,
  0x208ff10f4eb08c7U, 0x1fb020b15f902fcU, 0xf5f703c902f9f801U, 0x1ff9010513fe0dd7U,
  0xf9fe08050a081efcU, 0xbf203ee02f309fdU, 0xf00ff900ecd80fffU, 0xfdfafd06eb091bfaU,
  0xf0f7f8faf80609f5U, 0xea340a06f70d100eU, 0x1f8f705f0f50bf8U, 0x1070dfb00f9ffffU,
  0xf90af8f00d01f7f3U, 0x60008f804f30001U, 0x40b08daf801f908U, 0x3f800110bfff905U,
  0x2000a080506f6f0U, 0xae301ff09040afbU, 0xee0604f5f6e6e801U, 0x709f8f6e80d1102U,
  0xaece2ff00f3fb03U, 0xfd0b1efa050d1412U, 0x5fbf303fefc0100U, 0x5f7fb050207f8fcU,
  0xf60914091908ee10U, 0xf5f9ff04fc0a0903U, 0xc0002fff5090704U, 0x12ec05e911fd04f7U,
  0xfaf4f5090809fff3U, 0x6f509d7fef6fcf9U, 0xb1dffe5031b000eU, 0xf8fbff0503fbf2f1U,
  0x1113ec020605fafdU, 0xf70b0efef10e0014U, 0xfbf7fb03fa01fdf9U, 0xf5f70aff0506fc03U,
  0xed051a160ff7f6eaU, 0x8fbfefb03100a00U, 0x11210d6090507f7U, 0x17ede90611ee07eaU,
  0x3f5000afb0504f9U, 0xee100e903fbf6f6U, 0xb121e15fe0e14f5U, 0xfefdfff5ef02f602U,
  0xb1917e1f5f9fcf9U, 0xe1102fa0311001eU, 0xbf5f3f2e4fffcffU, 0xddc0f0a03fcfe02U,
  0xe513ff0316f7fa07U, 0xfafef5ff100afbfcU, 0xf9051cdef707f9f6U, 0xedffd0907070007U,
  0xfdf405fe01100901U, 0x8dbecfcfe03f9fcU, 0xfe010c01031af0daU, 0xf60707ffeffcfc0dU,
  0xa18ecd507fb03fdU, 0xfc1b0c06ff06021dU, 0x20bfaf8fbef0cfeU, 0x1513f9080a04f902U,
  0xe20c0bf115ff07e0U, 0xfc05fb090b031012U, 0xf40e08d4fd06f900U, 0xecd910040f02e5U,
  0x608fef70010f7d7U, 0x5c8f6f5f605fdf7U, 0xee513fffb0ff6fdU, 0xfbfdf506f7f7f4f3U,
  0xf01fe08f9fafd00U, 0x1401070ce2f0fd15U, 0xb0606f600eb0c07U, 0xfb2cf9030af702f8U,
  0x10031b27fc03f8U, 0x6fb060505ff1dd7U, 0xfe11182f0a040b00U, 0x15eff10f072d2bf7U,
  0xf5f5fafefa14f9ebU, 0xfadde50efdf204feU, 0x14eef3f60921f6fdU, 0xf5f9fbf800f105e1U,
  0x11df41c00050a06U, 0x80b0b00fcc5faf6U, 0x90104f404dbfdf9U, 0x409f9fb000aff02U,
  0xf8090721200af0f9U, 0x601f8fc0a1110f1U, 0xc0210fbf6f50604U, 0x1be0efe9fd0b17deU,
  0x70007f91906e3U, 0xfff90d0c04fbfffdU, 0x2030e09091217edU, 0xafa040b01e9eeU,
  0xf0124f303f6fff6U, 0xf0000810fdfa0e07U, 0xfbf8020508fa0a00U, 0xfd0008f30204f704U,
  0xd00906d727fafaebU, 0x1fc0802fe1704c7U, 0x8030c04fafd07f9U, 0x4d202f608fcf4f5U,
  0xf5f6f50a0c0afefeU, 0xfffbeff1f90009f9U, 0xfde625070614ed0aU, 0x2fe06f910faeef4U,
  0xb13fff108ff0407U, 0x30d1410f7e2110cU, 0x5fa0508f3f4fa07U, 0xf90f090c08f9f8faU,
  0xe40602fa1f040000U, 0xfd06040115160400U, 0xe090804fafe0404U, 0x2cacfdd0bf22cdbU,
  0x5fc0405080106efU, 0xfff60ffc04010203U, 0xfddae5060118ede1U, 0xfff501fa0b07e9f1U,
